node {
  name: "keras_learning_phase/input"
  op: "Const"
  attr {
    key: "dtype"
    value {
      type: DT_BOOL
    }
  }
  attr {
    key: "value"
    value {
      tensor {
        dtype: DT_BOOL
        tensor_shape {
        }
        bool_val: false
      }
    }
  }
}
node {
  name: "keras_learning_phase"
  op: "PlaceholderWithDefault"
  input: "keras_learning_phase/input"
  attr {
    key: "dtype"
    value {
      type: DT_BOOL
    }
  }
  attr {
    key: "shape"
    value {
      shape {
      }
    }
  }
}
node {
  name: "placeholder_0"
  op: "Placeholder"
  attr {
    key: "dtype"
    value {
      type: DT_FLOAT
    }
  }
  attr {
    key: "shape"
    value {
      shape {
        dim {
          size: 1
        }
        dim {
          size: 32
        }
        dim {
          size: 32
        }
        dim {
          size: 8
        }
      }
    }
  }
}
node {
  name: "const_1"
  op: "Const"
  attr {
    key: "dtype"
    value {
      type: DT_FLOAT
    }
  }
  attr {
    key: "value"
    value {
      tensor {
        dtype: DT_FLOAT
        tensor_shape {
          dim {
            size: 1
          }
          dim {
            size: 1
          }
          dim {
            size: 8
          }
          dim {
            size: 16
          }
        }
        tensor_content: "\266\"\346\277}\306\256\276,\3103\277\334\364\310=\3762\200\277\325@{?\n\312n=\002\202M\276\314\177g\277\215\233\376\277S\315\t\277\370\357\233\277\216\300\226=L0\377?\316\273\323\277\270G\226?\032l\353>\334\376j\277\212dj?\305\032\210?!t\235\277\377X\324\277\3751=?E\022\235\276\033\353\356\277\3570\342>r\203\016\277a\'\266\277\266\021\034>\306\225C\276I\370\247\276\024d\245?\233\262\355\277\022\254*\277\265\0026\277\266\333c?\237Z\220\277~x>\277p2\216?\001C\267\277v\254\247\277\026\322(?\231\r\346\276\252\372\352?\315+\240\277\213f\320\276N\233\367\276\002\262\241\277=\177\335>\234\327\275>+\027M\277$\324\265\277\351\373\227?\261\266L\277tP\024\277\203\353\000\275}\334P=Rr\232?\240y\373?\343\264\230?\037\316\212\276\232\203\347?\257O\361\276\262j\243?\251n(\277\002\266v?\031%\216?\311s\235\277f\274:\277\274\"\205?\262a\225>\251,\351>\025\204\352\277\204?\310?\017{\370>\023\240\226\276w\r\246?\337\274\311?\267\241\325?\206\341\325?\005\246\276\2779\036L\277h\376\260\277\201\247\306?\207R4?s\304\230\277\3503\215\277\310\t\205\277X\336\255\277\275] \277F?\215\275pj\370?\346yK\277\0028\272=\207e\343\277\231,\371?\004Z{>N\261\347\277\355\323\007?\310\275\221\2771\266\206\277\010\307\323\277!5\262?\244\366)?\n\360\321?\300B9\277Py\324?Y5\313\277I\n\244\277\313W<?i\221\227?\003\327\245\277\265<\264?\240\363\253?\225\3607?bX\301\277\230\250\200\276\327C\237\276\023X\373\277\336\235G\277]\252\206?\322\260\366\277^l\264?f_\031\277\355w\340?T\025\331=\001\276\331?\335\231\230="
      }
    }
  }
}
node {
  name: "gen_quant_npy/inputs"
  op: "Const"
  attr {
    key: "dtype"
    value {
      type: DT_FLOAT
    }
  }
  attr {
    key: "value"
    value {
      tensor {
        dtype: DT_FLOAT
        tensor_shape {
          dim {
            size: 1
          }
          dim {
            size: 32
          }
          dim {
            size: 32
          }
          dim {
            size: 8
          }
        }
        tensor_content: "\267*\224\277\323\277\231\276hE\323?\321\230\336\277\355n\341\277\031\030\345\276Z\223\037\277 \006\\\276\006\213\333>\345\014\315\277!\210\014\277$Iq?\254s[\2767m\204?\031-\201?;\314\026>/\377\261?\264b\275?\213\314a\277D\370\213?\212\342\361\277\033c\227?\253p\261\276\235\t\217>}\316\213?%.\364\277,bC?\261\177\337?\273l\200>o\035r?\275\327\226?A\346O\277]\340\330?\374{\001\277\303\036u?\331j\237>\357\002\244?l\270\224\277+\254:\277\365\3254\275{*\260\277P\326\311\277;\363\376>W+\236>\226\034\025>\336\353s\276Y?\363\275Z\361\375\276L\240\337\277\205\237\326\277_\t\223>\036\312\335\277I\240\251\277\\\367\222?\322\037\345\277\231e \277\225\260R\277\301P\271?5\016\365?\337r\335\276y\300\364\277lN\234=\245U\210?\\E\265?h~@\277_e&?\373\241\367\277-a[?\003\032|\276\360\307\376?\2023\244?\367\243\344\277p)\215?\367]\272?\013\3341\277[\024\374?\263x\311\276x\341\242\2768F\361?\362\360`?\340\225d\277S\204\214?\257\244\362\276\\z\373?*\031\330\277Pz\363\277\270d\016\277\330\210\024\277\024yN>\234\250\215?\222\344\273\277\346\277\343?\300\320\313?\016\207a?&\236\263?\340\231\243\277\214\270\363\277\344u\346\2760\376\231?Z?\315?\331*\223\277\234#\323\277,o\224?Bw\231?\2452,?\263\377\002?\334\026\337?`\274\022\277\327\277\273?\237\312\276\277\274\227\261?\3714\341?ibC\277Q\364\205\277\206tQ\276J\324\205?F\207\300?\362\2154\277\005\231\202\277+\355\300?\315X\216>t=\376?\013[\333\277\362\366\031>\222W\271\277\002C\216\277\007\265\216=\330C\334?\036\245\305?0\374\365>m\214\201\276\205\303\357>\270\215\305\277;\305\376\277\252\375\214\277\222o\210\2765m\274\277(\3737\277%it\277(V\267?\355g\322?Hz\224;\330\346x\277K\207\354?*\000\026>\265H\272\276Jo\216\276\014X\325?\320\267\245=\353\225\250?\314\361\300\276>8\025?\277\270\255>\006\3714\277\337\340\301<F\177\354\277\242Y\341\277\0313\263\277\217\304\223>\327\316a?\314y~?\nF\310\276C\317\226>\331\274\303?\030\206}?\035\n\272\277\005$5\276\367+\206?b\"\371?\261s\200?\003<\014>\325$\233\277\332]\204?\020\007\222?\025\237\261\277\331\225\375?\t\356\034\277.\273\360\276G\221\325\276\350\010\316>\350\303x\277\247\347\262?`\207\204\277\034F ?\306!@\277\177\355\270\275\306\257j\2779\315\234?=\003#>/\234\213\277?C\245?\331)\"\277\347tH\276=`\260?\\\235\225?r\236\351?\036:\320\277\244]\210?\227SS\277\213\262\362?4\177\215\277$\322\324?\365f7\276\273\350\227\277\271t\215?\211\366~?\216Y\202?\276\235\224\277\033U\243?$i\303\276\235P\371\277\2059\222\277\301\307D?\366o\327?\0139m\277\344\377b>\204\344\202\277\246\234\337?\007K\034\277\314&\360>\213\003\353\277\026\252\341\277\014FT\277\366\224}?\271\260\341\277\236)\333\276\356\266\205?16\352\277\327\332\236\277\322\241\243>B\327\313=\260H\233?\246r\247?\365\030\217\276\362\362\207\2772\357\314\277\230J$?\254\307\236>\221)\256?\356\314\275\277\r\035\360\276\204e\231?\007\367\274\277-\255\007\277\352\234\\\277\325\225\211?\035\263\226<F]\361?i\261*?Y\305\323\277\261\030\305=\362U\264?\235\275O?-\307Q\277[s\261?\302\221\376\276\3203\324\277\005\023\355?\016\250n?\326\353\363>\\9\307\277\277/\324\277\363 t?u\252s>\366\367;\277d\252\207?\010:\357\277\322\343\220\276\214\\\020?\230\257\367\277k1\005?XO\034?<\272\364?\000\177\312\275\362\376\236?L(\232>\267\346<\276s?\313\277-\304\345\276\335v\276\277\307\004\203\277\331\213\\\277\305\370\337\2753\302\277?!Q\361?w\010<?\025,\353\277\232qa?5\t+\277Vb\256\277dV\203\277\250\252\254\276\233B\323\277/-\330>3\225\200\277x\374\333\277(\345\254?6\325\257\277Y\243\373?\242\210*?\304\311\375\276\264\371\242\277\343\0275?\234\333\350\277|\346\223?*KW?j\303\313?0\326C\277h\371%?\253@@\2770|d\277M\'P\277\270\030t\277\230h\212\277\355\021\203\275\025\037\254\277Q\311\337\277#\374.?\337\203\341?\305\t\215>\\\352!?\000\340\243\277F\002\260\277D\227\202\277+\207\221?L\010a\276xA\273?\237R\262\277\305\215v\277\021\343\225\277O7\226\276`&\366?n\3346>},\001?\262\3735\2775\300\356?b\006\220?\021\262\366?\002\351\345\277\000{\240\277%C\224\277\205\300\345\277\335\370K\276V\336/\276\217\215y?\357\362\356\276\364\262\255?_\327\201?\260Jw\277\264K?<h\007\210?n?\243\277\302\364\235\276\233\373\201\277\023\333o?{\033\270:+\245\373?\024J\250?\322\347\025\277y\010U?i\234\257?n\021f=A\233}\277\344\267\272>\201\352\227>\024bD?_\261\016\277B\241\362\277y\205\244\276\237\265\363\276h[p\277Q\010\313\276a\306\341\277\nl`?\035+\232\277P\315\342\277\275T\273\277J\245\003\277\317\302+\277fwt\277\030W\007>\267\334,?m^\'>\213c\245\276\321\217\024\277\033\026C? \230\361?\265\312\315\276\363\271\305?c0\231?\260\201\244?\263\266\n?>=\214\277D\212(\277\304Y\017\277\013\367\334?\242\177=\277\000\225m>>\227\023\277\020\340\256=p>\237\277n|\372\277\317-\322\277d\343\374?\316\272\371\277\260f,\277\005\267\202?1\375N\277\0367\350?\3059\346?\212$\301\277\315\177\307\277\346\265r\275\233m\346?\020a\303\276p\274\257\277\030\372p\276 \314\303\277\365\204C?\242\220A\277\322\352$?\023\331U\277Q\331\346>B\215\245\277s5;\277*1/?\3419U?\216\317\324\2776\214\364\276\r\261\317\277Z\266\374? \303c?\252\360\t\276\344\\d\276\351f\263\277\243\001\224?b\023\026?\300\221\304=2b\275?\253\203\"?\221\322\327?@\315\351<\237\313#=i\020v\277\325\325!?\360?\325?\275h\177?\335\002A?\366m\367\277\302Sw\277V\323/?\024]\252=\252\225\305?\251\246\036?\177\252\342>-\204\347>\002]\215=r\300\200?\233\332\367?\222\311p?*\353\213\276\014\376\371\277\314]\342\277\350\001\277?\362\300\340\276\376T\272?7\226\376\276\016\223\272\275\213\nb\276\014\355Q?\220WR\277\006\360\337?\306\365\211?\230\211\213\277\262\030<\276\355V\311=\2315W?\257\373\276\275\213w|>\243\364\317?\362I\330>\312\343\210\276<\352\350\277y\267\310\276\321\014v\276\027l\356?\"\245\353?\244i\334?\252\341\'>#\033\217\277K\223\331?\377q\235\277\374\342\212\277\372v\000\277\214`\321\276\276\350\263\277Q\261\211?\247~\243?1\377\237\277\354\207\227=\352\231\335?L\272\223>\243J\364\277V\264\320\277\366e\370\276XZ\316\275\304\223;?\333c\332\277-\307\366?\256\203\277?r\3010?\300W`?\270\201\035\277\026\036Y>\274L\232?\350\327\223\277O\351\357?\246\366\351\277\272\206\243?1\274\263\2760\010\342?\274\332\213>\233\253\305\277\314J{\275\325:]?\365d\224\276\212\240w\277X\376u\276<\300\262\276c\'\212?\222\013;\277d1.?\217\301G\276\360G\314\277\026\005\213\277\022@\242\2775\235\334?A\352\016?\3319\343\277\251\227N?\"E\026\276\220a0?\360^\323?^\264\356\277\211\361\007\276O\355\266\277\206\343\250\277\320\033\305\277\336\320+\276O\220\230?\325@\340?\240L\333??\301\202=d\253\347\277Q_\014>\365Z\326\276<\001\034\277U\347\326\277\023M\200\277\004q\302>h;\326?t\266y\277\324~\025\277Kh\201\277?\214K?\256\014\344\276\311\266{\277\371\nX\276c\272\343\277z\246\343\277_\001$\277\023\\Q>\233\204\265\277&v??5I\244>\016F\377?\034Fz\277Z\232\202?\r\332\364>X\235\256\277A\002\232\277\010|\315?\233\356\264\277X\275\200?\263\337\244\277\0005x\277<\272\232?8\352\262\276\365\326\030?\303\255R\277\272\265\346\277\335tN\277v\177\"\277\302\253\356\277\020]X?\224\312\340\276\025\004\323\276\326X\274?\224|\354\277[\240T?\277\025\316\277\240\332e>/C\322>\245\231\303\277[\335\206>\267\244\213\277\205eh\277\035\007\324?\026\247\352?\304\210\257?A\300\322\277\002>\017\276?v\374?\261\002\311?\003//?\324\316R\277\335M\203?\221\276\374?\262\313\034\272\306\344#\276=M\333?\202f\r?\327#\020\277\007\234\215\277\226N\214>)\344\247>\326\t\234\276\177\236\031>C\262\237\276\2446\266>9\236V?\006\242\231?\266\354W\2775d\270\277\242\241*\277{\354\236>\362\323D?.f\322\277\350\264<\277\214\304r?N\035\202?\250\251\304\277\351L\300?\260\037\261\277\307t\300>O\'\350\275\305g\n\277\177y\303\276w6\246\277\314x\354\277\251\321\303?y]\272?\223+~\277\235\347\353>\260\261\302?!\360\253\277\254\221\006?\033\350\232\277\211\275\262\277\354[\320\277\313\350\204?\222\373H?\3439h\277\017Za>^@q\277{\256\222>a\274\350=\374\364\003>\\Y\220\277\230\371\226?\3261\325=#r\347?$\n\336?\374\026\366\275\364D\266?\001\370\376?\006\036\316?\006CO\277\251\265p?\366 0?\'c\240?\351-\335\277\312\243\215\277D\357\235\277f\241\353?\353\026c\276\210u\201\277\371\'/\276\270\217\251\276\256\031\353?\266\0317\277]H\243\277< \254\277\2139\340?\021\315\027?|S\344?\372.6>\224\272\204?\0350\272?\311\030\307?\022\322)\277\2521\301?\267\315\363?\273W\353\277F*\204?\332d\232?&\301\205\277\222Wp\2752\277\336?\371\316z\277x\367\266?e\243\372?\363\366=?\016\210\262>\227}\262\277\236\347\201\277\253\354\277\277\245K\276?\271\337\266\277\303\253\204\277UE\357\277RK\241\277\247\342\335\276vm\232\277`\274\000?>\020x?\267~V?\244+\237\277\327\330\235?\021\222\227\277+\253>?\033@\256\277\211W\275?\230\003y>C\267\351\276\312\374\253\277\200\266\006\277Y\325\355?\256\023\335\274\374Y\240=\303\213\360\277b)\317\277\031\307&>\337\220Q\276j!\233??cE?\'Z\247?\021\260X>1\256\362?\332\233\311\277l\316\274?l\371\220?B\265\361\277\266s\331\275,\0132\277D\261{?\350\356\374\277,\206\001\276\247S$>\357\224\350?*q\007?w\014\333\276\334\327\241?\343\316\313?\221\014\306?tq\274?\004Y_\277\257\253\275?\3511\372?\232Sc?\216\362\013\276\006<)\277y\030\207\277^;\320\277\276\024\233?)\376\024\276\245\2669\275P\223\347\275\210\226\241?Q\263\254\277_\270\212?D\3539\276\277\320\367>\003\277\262\277\337\346\300\277W_~?\222\207\365?|[\236\277\032\3073\276N^\\\276\312q\356\277\353\221\360>\010\013\343?\\*\200>v\342\031>\344\377\376>\241?\004\277U\241\326?N\242\201?\301\336\361?\177\270\244\276\237f\342\2778\231r?\345\202[?*`\200\277h\021\221?\301C\360\277\273\021g\276;\033\232\276\216\323\347\277\344e\257?\005\333\352?P\354,\276(\000\235\277eB_?\361Zb>\237\036\315?\002^0=\026\002\263\277\2240\243\272\177\343B\277#\305\253?w\352\332\277~\251k\277\034\304\302?\372\220y\277\310\356\320\276\355\336\213\277\236\221\n\277\332\013\245?\036f\255\277\205=\225?\313\372\212\276$:\230\277\324\243\351?\250\231Y\277\260Y\262\276\367\272\207?}\210\220\276\rX\017?\224\251\366\277\212\0045\276\252\216h?\007\215H?c\304:\277\255\222$>\357=2\277+\236\324\277J\216P\277\024\006\300?q\037\366?\346t\350\276\330\252h\277r\317\205\277\024\204\251\277\266a\020?[\273\335\277}\003\332\277x!\200?de\t\277\265\377\373\276\230*1?\300n\247?^\313.\277\010v7\277<C\343\277,v\027?(\031<\276\231P\345>\240%,\276\251hF>\3650\016\277\360\223\205=\302\374p<\275v\213?\177\222\357>q!\037\277~\037\330?\2276\334\277\271[\342?\223\n\341?4\'\300\276\332\270@\277U\335\371\2774\211\317\276\272\020<\277M\000\206\277I\r\212\277\336\267\277>\242\347\342\276\234*s\277N>\324?\312\226\270\277\311\205#\277f\311\032\277\326\264p?\032\347\264?_o\372\277\033\364\t?d\342\256>\207r\332\277\177\207\342\277\310t\177=\224\215S?\272\310\235?\300\207\242??\177\256\276\036\205\036\276\307\0021\277%_\236\277*d\341?\320+5\276\266\024_?\365\232\260?d\367\254>5\207\014?\351\036\315?\335#\005?g\207\231\277\252w\306?\216\210\262>\314\271@\276\301yE\277\376\033\263\277~:\206=B\324\215?\370\003\027\277d\264g>\347\362\363\277\367\005y>\304\352\024>\355\004\226\276\003\254p>\254\\\264?\302\334\310>\341\304\337?\354\206(>)\013\007\277\336\217C\277!\324:\276\202\311i\276\357\301\262?\243\007$?S\226\326\277]J\212\277\035\372\231\276\241#\237?\3251\247\2770\0068\277\253\201\317>\322|\226\277\225[]?O\332\300>j\257\214>F\221\206\277h\014\336<\346\201\303\277\351\004\306\276<\360\253?\304\336.?h1\215?\374.\362\2771\342\314\277\3211\332?\227\371\225\276\226\006\271\277\270\336\025\277\3019\305\276\213]\333\276\377-\244=\250\311\205\277\247>Y?I\362\226?\030hl\277\3219\000?\300j\264>\2764\220?\373sU?&\014\253\277\035\023\302?s*\205?\243\006\256\277\373\222\225\277\366F\376\276%\026,?\252\241\354?}4\360>`\371\304\277b\234\344\277\300\376N\277}=\206?^\306\207\277\005v\234\276\226\221p\277\2572\234?\\\373\325\277\022tZ>\204r\030\277\024\315\301\276Y\206E>x@\300>,S\231\277S\367\226?\232\t\342?l+\261>#\206\346?\017|\247\277]\303\236\277\251\322\031\277>k\373\276\001h\007?\361p\240\277\366\204 ?\233\301H\277B\357\300?\222\021\216\277q\251\320?\233ut>\356\006\337\276\034\211\356?\345,y?#j\207?\n\302\306\277\027L\377\277\t\226\350\277B\316\020\277\315\270\366?\016\006k>\370L\355\277\337`m\276pl\312?p\031\360\275\377\316\301?\223\355\360?\264\326\346?#\377\330\277\373\263\273\277y\"\366\277\211H\237?\374\361/=\355\310\035\277\204\361\232=\"\230!?Z\332\036\277\221\233\253\276X\3050\275\214:\355\277\205\307\332\277|\024Q\277\215\363\324\276\220\375\245\276\260\023\242\277\004mh\277%Hx?\375\270\036?\177\270\327\276\3413\027\277T\317\372?\207\220\355?\01432\276Ll\367?\306x\364\277\037g\224\277cR\253?\256\305\312?/\0041=c\371\317?\371\201\325?nM\267?\331\003K\277\3512\370>$\206\215\277\3479\335\276<\335t\276;bf\277\207\020*=]\210\303?\252\337\256\277\345\t\234>\014E\325?\301\326\303?\3457\264=\343\271\027?\372\2612\277\263\227\266\277u\223\221>Z\r\n\277e\254\200>v\274n?\361\220\245\277\346\340m\277\177|\305\277\032\034\213\277)(w\277o\025\260\276Q\023\332?wM\303?\007\306\245\275\262\227>>\240\346\204?Q\203=?\277x\263\277U\323\370?\302-\230?c$\007?\273\273a\276\314\013\035\277\346i\024\277\023\220\232?\213\335u>8\265\240?\2152\320?\323I\370\277\217PF>\364\344\205\276\352\341\313=\340\254\264\277\201,\201\277+a#?\014P\256?\034\300\343\277\254\032\256\277\241\244\352?\271\231\226\277\207\331\305?C\177\014\277>\033!?\226W\037\277T}\347\276\231\000i\277$\347\327?\266\022\376\275\027\265p=\201\0063\276\366\200\203?\374\253\376=\253\222Q\277\301\020C? \304e\276\345>\344=ZT-\276\350\261\326?\241\256\302\277=\325)?PT\236?Y\275\373\277,\315\002>\333P\352>\263m\225\276\276\335X?[\222E?kFs\277\005L\346?[o\330>\024\311\301\277\3671\214?\027\372\217\277r_\245\276\231\375\330?\325B\245\277#\031\017\275\311Y\253\277\334\3002\275\024\262\032?YP\234>\227\017\365\276\013\276\316?\304\312t\277O\264\364\2771\033\356\277\301\032\201?\364\001f>,\005\262?Y0\274\277+\214\365?\003\364\216\277a\302\262=\365T\363?\337\352\205?s\004s\276\221f??Y*\242\276\003\n\022\277\341\303\036?\233\375\344?[4\240\277*>\211?\373\373\324\2778\227\275?\307\365\325\277\356%\366?\3052\276?\001\207\356?\304\317\364?\356\316\225\277\313\354\202\277\2726\231>\303C\367\276\246\333b>P\213\361\276L.\351\277\3556\261\277\207g\030?\365\322V?\027\353\007\277\245\335\362?\313\r\342\276>\213{?mh\244?\374PI\277\341\017\276\277\223\240\224?\372\223\227\277o&\225?\002d\303\277\036\302\330>\201\322\014?\315\354f\277S\264\221\276\31736?R\213k\277\254\2074\276)K\277?\373\271\352\276,\356\323\277GQ\364\277\355b\207?i?7\277\007\345\313\276oc\265\277\312j\316>\345\334G>Q\361\027\277\241@\303\277g\224\360?\0174\350?\303\232~?\212&\341?\372\307\264>TI\333\277\\\343Y\277~\332\266\276\304o\277?\007\250\312\276[\360\302\277\3564`\2772i\013<1\023\216?E9s?\334\322\365>\273\310\205?\212\304 \277\027\232\367?\2567w?\363\274\357\277\223hP\277V\255\203\2778D\271?\242\333%\277\222\263D\277\\\022\346=\262\006\374?[\376<\277\302\240\221?\345\342\312?%=\210?7\025\330\277\246\352\354\277J\305\031\277Da1\277\363\022;?\304\020\266\277bDr?/\333\t?\031\245\262>\374\025\235?\3469\232\277v\t\177\277\212`\376\277!\024\306\277\330d\025\277&>\270?o\271<?*\273,?\244b\311\276\220`\273?8\361\210>fn ?~\372\324\277gE\367\277U\206Z\276\356\240\303\277\275 \261?9\264\211\275|\037\223\276\036\371\255\277\300\371\246?v\224\362?0E\344?\273\"E>n\246\010?E4\343?N\2463\277\002\277\222?\312\341\345?K\311\375?\022\233$\277\255J\212?\321i\301?\026\267\340?\346`\263\276\337u\330\277},\217?eZ\317?7\205\242?9[t>U\320\370?\260g\275\274,\315\372>D\325\334\277T6\374?\300[\221\277\346\355F=\251\002\211\277\217AG?m\230U?\032\016\346?\336\260\312\276\263\201\004?\3278\274\276\320\026b?\221\356\354\277W\300^?\204\257\317\275\\-!\277\253\327N\277\277\326\310?\274\235\265?\234\024\371\277\316\214\226\277%#<\277\206\007\177?d\024\350?\367\024\225?\376p\350:\"\013\264?\022\277z?f\013\223?8E\275\277\275\200\311?\037*\300\276\371a\323\276S\031e?N\2433\276\3452\300\277\344\206\307\275k\373\331>2(\355?\235\210\352\277\342\307{\277\3045g\2778\027\263?\275,\212?\226l\313?\333\366\277\276\201y\017?\273i\230\276\254U\247\277\036r\004?\274\036\337?\313\236\376?-\340\347\277\223\3206?\005\357\271?\036\244\214\277\004\272\324?=\341\223?\304\342\357\277\207MJ?\357\271\232\277\244\"\034\277_\270\233\277K\214\346?\365\354\217\277Q\326\177?o\224\032?\036~\325\276\272\032\t\277\256\026\243?\247\273\372?y\013\303\277t\351x\277q\245\260=Wj\341\277\200-\372\277\205]7?\201\024\232=\375G4\277\037\357\213\276x\333\337\276\021\010\335>1\227\216?\275+~\276\354\245(?^\335\017?\230>\214?\360\374\243?\363Y\336\277\253L\221\275d\021\353\274\345\010}?\213\024\361?\247\345\277\277\356[\213? \307\233\277\326\254\303\277iT\367\277\252\020\221?\n\307\214=\226\331\346?\315\014\005>\350o\\\277v\224\370\277\024A\255\277\310\310\247?_\201n?\362\276\363\277\001\031j?d\350Y\276Kq\262>U\325\005>\347\366\364\277e\311\264\277\212\232\217\277\266\222,?\005\272\373\277\204\274\276>\005\342>?\336M\233\275-b\324\275\002\3343?\373\370\376\277\312\360\302\277\211\003\352\277w\376\245\277\336\252\">\014\"U?\340\267\374?d]\312?\027\216\377?\204\247g\275\027\022\272?\334L\341?\340\031\305?\323\004_\276\376^\347\277\261\307\213\276P\341\232\273\351\'\321=\347\276\232\277\211\277\210?Z\r_\277y{\272\277\352\246\214>m\343\305?\374\362\375>\204^9\276\304\254\225\2767\260)\277O\204\277?nK\007?$\035\351\277\341\270\"?\225-x\277Pr0>\377\016\216\277\250\310\207?\225\362\246\276\251\273\332\277\005@\337\277\353q\377\277m\037\205?:T\212?X\215\323\277\336\365#\277\233\007f>\tlt\277V\021\320\2775?=\276\226(p?\240.@\276\271S\333\277\365\242\243\277\232\225H?Z\245\327\277d\343\320\277ee\027?\302\275\275?\273\247W\276h\302\234\277\030\r\206\277\271\316\031>c\303\273\277{V\312\276Y\007\361?s\307\311\277N\367\214\277\217\250\233?5\032\234\277\353\221O\277u\027:\274kV6\275\234\206\311?v\351\250?\330\225\315?\031\357p?\205v\204>\310o\315\277f7\352?\230\346)>\033t\243\277e\364\333>\360ya?\312\235\002?\237m\236?\206\017\223\277\251\201\036?\203\303\217\277\322\2176?\325\034u?\313\036/?\025\026\236?w\361\312?a8\365?y[\212\277\330es\277\325\233\375\277\035h\376?sh\264?\306\032\206\2779\005\341\277\034\225\327?\334B\245>\254{\226\277\201\334\305\276\242\251$?6\200\320\277\314Lg?!\014\271\276\315\025V?\357v\017;\001\024\350\2766\314\366\277,\372\366?S\324\326?\376\261\317\277\315\355\323>\335\224G>\3162\212\277a\3535>Fe\243?x\031\377?\240\027\310?v\311\264?J\024\232?\264\336\315?\207\367\357\277\335D\235? \247\335?\317\360\031\277\206\336\246?\032l\315\277m\343\355\277]r\325\276;\270E\277\265\022\245\277\256\250|?\224\256\252\277\222I\260\276\241R\362\277-\351\231\277\204\031\332>\265\211\327?\232\203\314\277\177\216\227\276v9\263\277\214\261\373?\372b\n<\256+\357\277e\321\350\277\232\023\017\276\226\030\316\276l,\324?\354\334\306?<\033T\277\355\365\336>\236\315\244\276O\331S\277O6\233\277&w\000\277\314\235/\277\027MV>\354_\315?\323L\372>[\240\242\277stW?eX\332>?\264\232\277!\256\216\277\353\364G\277\356S\361?\026;w\276\002\206\237\276d\206\232\277\231\021\234\276\006\370w?W\372\035\277\361\320\352\276S\271\374?\235\3072?l\036\323?U\366\037?\257;M?\235L?\276\251h\225><Z\234?\311\022\256\2779Zg>M!\207?\265\326\276?i\260\265\276\334\366X\277=G]\2773\001\024\277\342w\322?E\325\254\275kdK?\235\t\372?\237{\250>\'\256\350\277\265R&\277\2041\346?\026/\006?\247\370\273>\350`\036\277*\254\346?\300\343\330\277\002\355|\277\335g\200\276R\201F\275\302\302|?\265\004\212?7~q\276l\'\311?\234\211s?\231.4\277S\353\022>\t>\365\276\216\001#\277\003\300\037\277^=U\277\277+\254\276\202\361\003\276\257\306\273\277!\332\213\277\014n\366\277\332\313\321\277\027\037\317?~\030\266=\234T\330>N\352f<\255p\220>\326\363u\277\371\314\251\277\351\315>?+\020n\277\275W\200=\225\306x\277?C\270\277\235\360\212?\021\377\272\277\300\260\204?\212\"\345?\301 6?\236Sy?\204{\317>v\"\313=\013WH>\033y\337\277\341\223\207\277CBC>\327\255\270\275!{Y\276\rB\307\277\357\033\226?\251\201T?is\240\277S-\326?n\264(?P\346(?G\350\362?O\210T\277R\376\300\277S\316g\277x\333\365?\221\003\304\277%\207\251=\216\023\257?x^\345>_\203\240\277\210K\346\276\031\306\241?Qv\177\277\006\213\261\276\310\274\230\277\002S`?0\364\351\2763\210\207?\267\256w?\311\352\351?\002\211\205>\302@\334>s\223\303\277<\016\201?\010\263\376?\335\322=?\025\376\255\277\265\315y?\013\352\233\277w\267b>\301\r@>\264\307\350>\347\326\210?\203\267\214\276\301\241\277?\304Xl\276\337\331\272\277\345\237\264\277\326\364\236?\231\324V?\301\217\331\277M2\303?T]f\277\r\235\235\276\t\346\321\277\251h\007\276\033\355\227\277\300\336\t\277\3158\210?\316\374\343?3\266\005\277\242\2522\277\200\302Q\277\237\014\237?\331h\363?\030\257\321?\000 \032=\203\232\030\276\324\306N?\275\356\263?V\n\260\277\374\255\336?\245\213\233\277e\024{?95L?r1\223>p\240\371?\343,X>\327\234\212\277\350A\230>FI\200\277`B\373\277\362\231\324?\264;\322?\374\217\247\277\001\377\341\277\323/h>\013\352\323>\263\337\357\277\277\221\217?\213gC\276\305\245`\277YH\352\277\236\241Y\274m\217\266\275\010\333\255\277\014\377P?\371\230\364\276k\324j?\304\235\345\277\257\225m\277\242\374\376?\313\344]?\317i\334\2771\207\347\276\211\001\347\277hS\232?\327K\334\276F\357\250?\0132\257?a\001\351?4\321\306?\316Gm?\352\250\223?\200\200\346?\333\367:?\346\234\020\277G!\225>9\177\271\277\n+\276\277\306]\333\276M\260(\276&\331Y?\256\271&>J\277\031\277\374v\254>h\272\335>\021k\241\277-\247q>\254\247\372>`\366\263?\232Z\233?\340aP?\272\216\025\277\2221c\2778*{\277\343\023<?W\202\202?\346.%\277\205\333\211\277t\275\t\277\\]h=\276W\307\277N\202\310?\224\253\204?\354\244\212\277p^\366\274p>\024<\026oy\274\331\"\022\277v\003\233=\345\326\255?\304\307\314?\206\206q\277\305\206\247>\000q\301>\320\363\243\276\331y]?e\327\303?\366\321\376?$\"\221>Q\022L\277u\266\231\277D\210\337\2762\261\351?ot\223?\234\245\250?\345c\247\277,q\225\277\227\207\215\2765\035\272?\222\002\233?\263[\303\277Z\321\246\277\305$\027\277$J\300=yp\361?\321\020\'?\347\205\311?[\376\264\277\004\016\256=\006p\322\276\017\262\233\277\326\364\332?\024K\304?\004\356\345\276\224y\310\276\2025\251\2766\254\225=\242Y\371?\265\306\352?\0219\017\277\317\313\235\276\027\321D?\226\227v>\212MT?Y%\351?\251\300\014\277\302|\226?\267\\\365?)@;?\360B\270\277\320\226\376?\231\264\350\277dE\262?\000\224\316?/\345\200>\220\212\223?p\016H\2777K\227\277\223\337\215\277=\3656?\370\270\022>\377\035e\276\370D\345?\235\362\234\277\270\316\341>\265&\321\277\0344\275\277\337W\372\277}\2627?\317- ?0\271\305\277\364\033\355?\005\374f?a\305\354?\322\253\035?\0165\305\277\233\314\317\277\243\315\350?\316\304\311\277\273I\306\277\235\030\364?\226<\000?\002\277\034\276d\324\250\277}~\222?\035O\347>\024\216\337\277\267\225Y\277\\\300\335\277\n\235\354\277\243q\325?\251{\360?\360\366\225>\200t\257\277\270\221\345>\205\na\277\247^\271?\226\032\311<\017Y\361?S\205\204?\253\263\222?|\271\204\276B\233\250?\367\342\345\277\000\347X?\216\r\244?\244(\037?\352f\355\276rV\245\277a\177\371\277\022\353\'?\250\247\027\277e=\332>\021\004\250?\261\3529?\365\237\242\277\020h\344\277\236\315\317?\177\241H\277sw\333>g\304\032\277\354\225\311?H\001R?Z\007\320?}\264\265\277mF\240?r\322\351?HbF>*\305\212\277>v\231\277:\231y\277\20624?Lg<\277uv6\277\346\221\354>\303\213\266?D\000\304?0\277\227?\027\232\366\277\372\ru?\020)\227\277\\\353\335\277z\264v?\037\363\262\277\036J\254?\306!\302?\257\245\330\277\255\330\022>\226\373O?NE\241?\234\014\005?\354\0045\277(N\345?\260\017Y\277\315\325\205\277\245}\325\277\002\3422>\231f\356\277B\312\314?\222\nF?*\323\274\277\024\244\354\276R^\014\276\023\033 ?\240\005\355?\\\274\333\277\375\337\321?u\214\361\276\273\313\316\277\253\224\341\276gh\t?\032\326\331\276\232\370|\277\353\206\244?\323\354\316?\3128\326?su\312=\376\317\261?\034Q\313>\205\316\271\277On\322\277\237<\204?0\271\036\277\2069\201\277t\210\221\277\036\327\227?s7{\277)\225\326?\022T!?\241_\257\276\256\027d?\037O\211\277_q\035?\364\037\242?\325E-\277\320\241\214\277\013\026P\276\370\030\236>8\200\217?\260\001\340\277\2679\346\277~E\370?\204e\356?\224\234\017?\211\315\250?Z\355\347?^J$\277\005R\312?\202\207=?h\311\263\277\326\3059\277\273T1>\352\227\247\277\007\321\275\277qc\243\276\002Q\361\276\343)\243\277[%\036\277\343]\231\277Y\034\275\277S]\263?O\017t?\024\273\375?\275\375\334?\360\327\336\277\372\367\340>\376t@\275\353\373\302?\033\204\224?\270\354\277?u\350\340?\376\203n>U\224\302\276\346\340\370?N>\331\277\023G&?\037\371^\277\007_F\276\1776\337>\033\245\272\276\304\033\030\276\252\346\341\277\332\232}\2773\210\360?\nQ\303\277\334\324\320?l\035\326\277\341w\210\277V\317\374\277\203\250q\277d@\371\277{J\225?\274\224\347\276\342\232\362>\371\010\263\276e\027n\277\034\202\242\2778x\271\277 v\244?\022\244\312\276L\335\326\277\271r\331?\006\234\211\277(\375\360?7Zk\276\321o3\277\362\006\256?\361B\247={+r?.\001\214?\314\014\337\277@\034\037?2sb\277\332qI?\357\273\257=D2\320\277\030\225\372=\022\013\242\276\362z\375?qv\330?\230\021\362?*\234\260?\335\255\227\275\220\256\022?\370\272-?\316G\010\275\213\215\324?\t\350\344\276p\245\356\277\022\201m?B I\277\201\352\037\276\375\362\256>P9\354\277\323\n\377\275\345\315\321?\026\207y>i\216Y>!w\254\277\017\222\245?\370\362_?\036}\363=\3549\341?\343!\001\276kW\212?UZ\270?\353\216T\276\365T\363<\3645\252?\225X-\276\227\322\217\277\266\225v\277`r\317\275Cp\357?\331\324\302?\311\035;\277\270\234\357\277\374\021Q\277\230\034\235\275.\266\347?|\311\202>=\006n>\255X\354\276\\ \014\277N\335\316?\215\374\304\277\321E\360\277\020uD\277<\214\360?\371\333\211?\373(\245?\341v\346?\320X\027\277J\244\001?\024P\222>\214\264y?E\216\273?\370\256\202\276\352|\234\277\352\323\221\277p\032\227?\267e\363\277\311\217\275?\323\177\204\277\232\331\276?\324UH>\320}\232<\3000\375>\236\230\353?\027\370\326\277w\005\003?\336\347\214\277\035\351\245>r\241\336\277\276\3338?#\036\376?\3263\313\277uT\201\274\215Hx\276\210\357O?\250\016\017\277,\010r\275cQ\214\277\260\306\306\276\271\330\304?7\237\201?\374\315\326=\252\363\217?\254N\363\277\224f\'>\206\316\211\277\212\271=?c\234V?\316\272\227\277\325\361\244\277#\001\337?\034C\301\277b?\022\277\215\376\322\2774K\360\276E\224\246>I*\211?\351\\\266\277\244-\232\277\336\227\230?\246w\256\277\022g\210\277\361\201\214\277\350\242\243?J\274\272?\226L\366\277S\353L\2773\377\033?\240\220\337\277\310aV?glR\277\333\342\271\277\007\024\322?W\000O?\325\315\333?\230\002\315?R\206\276\277\210\230\265\277\016m\221\277\025Y\267?X\211\270?\327,\237>\245\227s?\r\002s\277\223\311\277\277\336\224\214\276\277\317\207?\336\312\252?9c\371?\306\263\365?5\315\216?[\271\316?\r^\304\2762$\270?Zq\353\277^yo>>G\272\275!\020\221\277\367\231\310?\343\036\332?U5\210?J3I?\206\231\316\276Q\354\334>q,k\277\234\351i\277\271S\335?j\237\346>1J\352\277\221_1<\271Ga?a\014\207?\003I\360?\351\006\234\277\314\202)\277\214\315\302?\234@\244?\035\350\355\277w\3007>s\271E\276C\247\037?\177|\320\277\270f\205>`\016.\277\371\341\207\277M\206\023\277eR??n\363\277\277\223\375U\277\273\013\204\277k%\243?\022\231X?<\304c>\352\237\225?h\271\312\277~PB\275=\010C?\325\376\034?L\007\330>\332l\243=*l\372\275(\\7\277\277\265\366?y\373K=/\021\247?\354\265}\277B\253\364\273mx\242\277\267\024\250\276\030\210\313\277f\013\316\277\025\254\002\277\220W\237\275D\222\247\277P\215\345\275\351\345\344\277\335\006n\2772\256?\277\265\300\n\277\260cT\276s$B\277\330\221\235\277o\334Z\276\375\367\340?\027\302\261?\005\334\362>H\262\316\277\361\222\370?\n\252\242\277d\007\347\277#\311\220>\240J\265\277\360\253\224\277\242\233h?\273\322o=\007\031e\277\225\010\244?\332\210!\277\001\233[\276\372\344\333>f\346\354?\2621q?\003\373\255\277\253F\200?\347=t\277\325=\303\277\221\365\200>\325O\367\276cv\220?h\370 \277\233\3024<\3641\341>\016\253\366=KXK>\227W\205?oV\273\277\354:\356\276C\317\367?\352\265\362?\346\361\366?-\216\267\277D\260\311\276+2\372?\\\220\206>x\225\352>B}\306?\212\322A?\227]\347<\255V>?\311\313\033\277\n\334\315\277\\\232\026\277\0148^\277\3201\346\276\303\202I\277\247\372\265\277\360\366\312\277\261x\274\277\305/\037?\271\000X<[\026\267?\360\177\025?\034\027\311\277\376\007\276\277-\341&?\364!\354?\336At\277\305\304\373\277$\202\244?\220;\240\277\222:5\277\231\031\352\276\367V\227\277Z\376\364?\261\037d?\227\330h?F\241\373?K\213\325\276\016\356\275\277\322\364\336\277\353\371\027\277\2075\243?\372\327\257\276Q#!\277\255\033\224\276y\330\350>L\000\324\277\311\307\320\277+\224\377?\216\217\032?\020mp?Z\032\227?d2\236\277H4\257>\326\202\274?\263\255F>\320\347\371\276\0377\354?\374\201\204?\001\376+=\265\271\230?\301\306\342\273\316B\200?=]\340?M`\221\277\177\265!?\343\253\311\276L2\336?s\2637\277_c\247\276a\023\323\277g2\235?{\253\366\275 \226\341?<\250\020?\\\335\303?\033\322\030\2771\010\210\277\006c\215\277i\200\270?\304F\320>\272\353\023?mc\234\277\t\374x\276\305\260h?I\277\260\277\361\216\344?\310C\342\277A\273\340\277\372\241O>\267c\324>\333\364\331?\251\306\326?\027\204\203\277\372R\232?pJ\031\277K\000\204\276\240\031\277\277\230k\251\277\016\255\207\277\330E\377\277mx\350?UY\256?\202s\236?8}\324>i\340\333\277\256 \357??_A?4\013\220\277G+\230>\334C\335?\022\344P\277\td\252\276\355?\317\277\332`\362\277\014y\025\274\225\363D?\237E\265\277b\345\276?\323g\206\277F\321\241>\201\373\221?\226\311\271?Y\3717\277\361\205\224?\234F\216?:\200\272?F@\216?$\214m\277\312\033\341?4\240\360\277\343\336\272?\306\253\275?\215J\260\277\362h\212>\316\313\214\276d\352o\277`m\237?\211\233\203\274\'=.\277k\000\032\276\207\022\032?\0136\231\277\000\373\236?\177\337\367?\365\365\220>\335\332{>\265\206\371?&\217\250?\365H\240\2776\214\023>\032 0\277\302\264\315\277\035\307~\277\242\n\346?i\256\252?\246\257Z\277\306\375\237?^Ti\277\202C\326?\225\250\356\277\204mM\277\3259|?\3638\235?\374B\225?eN\270?4,\331\276\235\020>\277&\351\241?\230\311:?[\232\211?+k\345\277~\311\315\277Xy\247?\326\222\231?7\363\303\277\224\357\262\277\3313\330\277\307\367\230?z\177(\2773\364\314\277\327K\334\275\310\2216\277\351\035\022?Jt]\276_\350]\277/m\213>\250\315\036?\024)\235\277\010\226\362\277\016\320>?\007\315\306\277JH\231\277\311\265B\2757\203\254?\024=\027\277\210\230\027\277\306_\316?x\315\262>\215 B\276\251\005d\277q\035\315?\347\031!\277Y\264\373\276\264\n\354\276\377<\373?\371\034\266?\370\315\343\277\003\302\240?\202!R<\361\273\362\277$\207p\277]>\253?]\223\006?P\330\300?\034\3262?\036~\215?\376\233\302\275\357k\341?E\224\247?\366\314\361\277\020/`\276i\017\313?\021\"\320?\032\245>>\267\310\332?\005\323C?\302\227\321\277\221\035\300=\036r6\277/T\353\277?\371\360?\010\262\350>U\262\216\275D\\\360\276\2150\353=j]:?@.\307\277\2401F?\331f\221>}j\353?q\303\205?\266\315\211\277\207\020R\2773~\245\277*^\035\277\024\032\223?\306\375\214\277HE\264\277B51<\301\013\350?\021\335\324\277)\343\220?\203\330\235\276\231\210q?E\270\273\277\037\360|<\367W\346?47\363\2779\234\240\276\317}\252?\240\330Z?\336Z\366\277s\343\230\273\023\222\005>y\224\377\2752V\025<=\000D\277\206\233\030\277\204#p?\366:\336?(H\245\276\212\236\310?\267}l\276\334\033\275\2764\346B>K\330Y?\033\217>\277a\200\265?9Si\276G\354D?\225;\243>\004\220\252?v\272\'?\371\342\022\277\364\307\321\277Lm\016\276\024}\344\277\tY\256>[\\\373\277\023\246V?\266\014_?\354`&>Lx\363\277`P\323?\035\313\271\276\351\300\324=[/|?\211yV<\260\223}\275e+L\275\030\'\017>6U\232?5\325\355?\327h\027?\t\207\366?+\266\036?\021P\376\277 \305\350?\374+\232\277\250Ow?\2165\000?\233\004\206\277\022\237\266\276\226{\'\277\375\270\230\277\330*\341\277\311*\270>\274~N?\233\031\376?\274\030\177?Z\241\337?\313\032\361\277e\004\373?L\223d?H\333l=4\234I?\362\213\205\277\234\341\314?\303F\346\277RnF?\266ut\275%\316\352\277\226\320\322\277tIb?\005\262\337\277\335\203\212\277\205(\263=z\n\233\277\024\244\275?\315\271\227?\004\242\020\276\320\217\335>\017Z\000>\017\220\356\277x\005\264\2745\222\240?\331\\\253\277\3029\024\277sD\307\277\240\261\331?\rY\223?\206s1\277\3025\267\277\241\234\335\277\350e\325\277K\245o\277&\205\242\276[\017O?\246\227\360\277-m\007\277-\251\236\276\260\257\303?\210\370\037\277=\363R\276@\3654\277\374\3451\277\203\273\251?\222\304*\277\177\237\367\277e\274\360\277(0\223\277\332\317P\276\342A\r?\236K\271\277\205u\221?\267\215\241>\356\324\322\277y\344\202?\020E\353?\n\251\034>Wu\327\277\317y??\370w\235?#:\254?\017\233\365\277\221R]>\302\373O\277\001o\001\277\0140\361\277\203\034\002\277C\003\235\277\343l\222>q\037\352\277v\241\210\277\345H\365\277\202Y\205?Xs\370?\314\223\356\277\232\246\324?\272\324b\277\272A\316>2\225}\277\265\373\374?\370\356E?\227<\001\277@\230\302?\324\320\373?\227\256\023\276\037Oy\276\261\352\246?\206\205\255\276j\331\253?\035\n\345?s\325*?\n\207e?\270h\345\2773y?\277\355Z\222\277|a\337?\252\2644?02\247?#\276}?K}H?7|\377\275^+K?\330\347:\276X\020%>\'\224Z\277!eC?\023\251\330\277\226\324\343\277 7|\277\222\243\203\277\315uU>X\274\234\277\360\350\240>1\210/>{[i?X\010\241\277\202(\335\277\352\255B>\302%\201\277\351F\343\277\244\304e=\030\303\375\277\366\220\351?\034q\030\277\314\001\305\277\n\363\320\277H\321\346\277\243\002\'\277\220\223\265\272\304\254\t\277\330\216\274?\223\002\215\277\243p\350?\021\346\006\277\004KJ=\350x\357\276\032\032\305?\263\232\207\277\032\245\303?\037d\225>\352\n\245\2776\\s?\261\350@?\200-\314\277|w\256\277\244J[>\235&\030?\242X\260?\010{v\277g)\363?aJL>w\037A>\334\"\204?R\340\347?\276g\212\277\202i\306\277?\307\224\277\237\347\022?\037\032\266\277\207\301\254\276\354\266r?x\"\302\277O\254\007\277\367d\342\277h9I?\235G\201?\212f\222\277(\205\310\277\007M\007\276JE\325?Yg\273>=\300\272\276\211K\030=\t\272\353\277\003\265\323\277F\217\001\277j~\337?\014\257`\276\317\032\235\277\347}\327?\235\272\020?b\006\246\277\007\275\352\277\332\'\251\277J\267b?b\215\270\277\323\227\341\277\246R%?qV\336\277\364(\271\277u\232W?\177j\023\277\036\376\347?\264\204\207\275f\252\366\277\323p\306?\262\224e\277\211\237\364\277\355\306\010?h$\263=\320f\017\276w\271\367?\235\001I\276\3711\202\276[\000\334\277\023\002\325?\323\347\361?:\300\213?f\252\241\277\2331\242>9\254h?j\220_\277\005\217\206>XN\374?\245&\244?^Q\242\277\002\376\303\277\234\313\314?\030\375\326?\027\223\264\277\221\343\263\275\305\203\336\277\261#\240?P+\230\277=\251\253>q\377\003?\207\241\317\277p\014(\277\'A\374?\320{\227\276\350\257\243\277\264\177\343?\204\244\343\276\234w(\277\355,z\277\030\344}>\262\221\334\2777\007\320?\273R\237\277\316\312\275<z\212\312?H\250\242?\230\272\\?\303f\337>\3144\271\277\300\367\307\277\276\224\217?\205 \231>7p\206>\367\277\221\277\016A\255\277v\320\005\277\315\240\217>\357\004\305\277\221\353\215=/\251\205\277\233\271\022>\210 \207\276\274&H\277\377i\245\277y\252\335?\337\306\215\276@f\353?l\252\245?b\342\234\277\254\262\270>d\324<\275\025.\277\277\202\264(?\215\232\313\276\372q\206?(L\360\276>\027\255\275\375\350w< k\374\277\330\266\260?\2455\000\277,\362\222?\026\311j>Y\014\267\277\366M\235>-\341\364?\241\251\n?\311\305\234\277u\303i;\250\302\327?0}\006?\212\2052\277\241\027\376?\274h\256>8Md?7\241\253\277\325\025\320\277)\300\243\276v\276\034\277\347[$?%3\241?\243\246`\277\224\3157?\264Y\343?\322\272\311\276\243&7\277\035\236\336?\255\327\r?\370\237`\277\270\234\273?\306\367\336\277l7\312?\262\370\230?\326.\360?\n\376\347\277gl\317?\235i\256\276\306\363\204\275s\220\306\277k.\215\273\250!\352\277\013\370\242\277\343-v\277,$\237?\"\241\205?\332\266\"\276c\325\277\277\232\352\270=B\216\315>\243\256\353\276\032\352\240\277\250\034\363\277SV\302\277\256\341\202?\031\360/\275\324\024x\277\214\204\336?O\355\233?o\027\210\277RP\031\276\226\003\243?o\344\027\277i\250\240\276\222}\255\276\334H\204\277\210>q\277\\\304\231\276\335\206\340?0\302A?\230E\355>H\2261?\335\014\200?U\341\212>\331Z\207\2774\000\204\276}D\366?bi&>\370$\336?\352\225\234?\207\022\364\277\253\374\341>)\326\207?\177\202\317=?\026c\275\031\212\333?\265\027\312>-6k?\021\352\233\277,M\024?\377\347\223?-:\014>\216\036\237?\213\307\022?\230oc?\251u\311\276\031\260\322?\320RM\277\225\037N\277\222\262\242<\221]\205?1\204^?*R\327\277/\030|\277\332\3212?\341\312\342?/)\334\277\375\223\317\277`\264\005\277\005\034Y\277\241\314\247=\262\372\356?\347Cr?I\340O=\240s:?\366\223#>\336\223}?a0\261?\025j\030?\331\376\270\274\360\265\374?Y\205e\277\267\336\321>&y\343?Z\017\227?\001\247;>\256O\200\277\237\351\375\277\303\347\362?O\333\276\2772\342Y\277>\213\224\277o\304I\274\274\350\320?\010{d>\036\217\224\276\361\363r\277\3570\334>\352}\026\277;\270T?<I\342\277e~\"?\\\201\277>^\035\310\277\305\037\300\277&4\214?\nG\234?1\204\023=8\340\346?\357Q\243>\214!D>%\002\330?W \224?\3709\376\277\366\324j;b\303c\277\224\326i?bK\006>n[I>\265\334\372\276,\033\367?\244?\353\2777\031:\277\347\003\250\277|\374\324\276\200\343A?\200G\203\277U\273\016?of\343\277$\007M\277\032\351b\277j\325\337\275\260\350\375\277\227\263\240?\203I\r\276\256\001o>\245\314\355>\376\375|\277l\037\370?\'\223\246\277\350\322??\006\363\265?v\331\372\277\227c\246\277\352I\343\277,i\243?q{\265?\313L\233\277\205\033\352\276\375\331\247\277F\307\321?\352\371\306>|O\207\2771\203o\277^\255\321=\037\021\201>\\#\366>\343\367\365\277\235\261\203\277{?w?\270\204\347\277\036\310\224\277\203Z\357?\035\275\317\276&M7\276\241\373J\2777\251\250?\320\270\306?\261\027\304=o\232O\277\023R\252?OL#?p\223\311?\212\305h\277s\272\243\275\267\370\260\276\025\353p\277\271\367\212\277\251\254\336?3\217\233\277`\237\230\277*H\317\277gYA>#\016\317\277)\251\246?\213\214\327>\312\333\263?9}\355?\212\342\303?g\307\260>\301\017\270\277\016p\315?\352\030\014\277\343\245\315\2763\3409?=\334\307\277\334\3707?\210m\356?<\211\364\276IX\325\277X\0008\277\366\240\305\277\226\366\356\277\223\n\321?8\346G\276\305s\337\274\250\274a>r\222\311?\352\351\300\277\231\206\266\275\211Au?\022S\340?\263\202\276?\313\313\037\277,\236\026>\264\177\262?\033o\023\275\310\267\343\277\200 \343\277\272\334\335\276\006\367\317?\031D\363\277\243\024\224=\261b9?\272\373\214>\022\261\241?\352\300\256>\360m\252=\363\355\275\277\356\327\213\276%7\332>\315\003\300\277\010\2221\277\324jv\277B\2425>\324\3137?\230(f?\277\367\362\277\216\270\202\276\236\365\240\277\212*6>\214E3?\036\r\237\277\001\2117\277\256\320\366?|\204\365>\301q)?\323\002\251\277\364pE\277Dl\254\276\030\251E>\014\366d=\002\001(\277\267\0175?\200e\005\276sfE?\"\310\373>R\245\364?}C`?\'\233\272?$\224\317<\256\030\335?\264y\320\277)2\322\277i\034\032\277\261\363\212?\026\017\024?\302\310t\277\350A\251\276\210\205X\277\333a]\277m((\277W/\306\276\335\0333?\311\373\374\277\210\345\216=\334X\000?\312U\244\277\273\321\276\276\0149\\\277df\341?H.r\277G\340\271?\213\205\306\276\\\262|?y&\314\276\0042\025\277\314\324J?\272}\211\277\347h\347\276<\273\361\277+@\367?#\235\320\277\000\205\247\276\251\036\205\277\213\266\217?(\330r\277\306B\322\277\270\213i?c\353\260\276\260\376\373>d\332\344?9/p\276\357pV?\271Z\035?\221D\272\277v\350s\277\335|\300?>\000\341\277H\3403\277\017\354\270?\343F>\277\365i,?8\177\332?\t\\\266\277e\205\213?\362\205\362\277\256\\\\\277\337=\227\275\n\366\363\277\253z\304\276\242\373\350?\261r\r\276gG\000\276G\250F?\360P\233\277\263\260\201?\273$]?\2124x>\204B\352\277gc\355?\262\300_\277&\304\247\273]\3612\277\300\304M\277\324t\304=\257\311\177>\373\303\346\277vV\215\275k,\234>C}\345?j\205\341\277\363\003\265?=\005\323?!|<\277\211/8?\271>\370\277\347S\215?\003\241\365\277\000\307\277=\371\203\206\275\221\3223\2772\020\217?W\300{\277\017r/>3-\017\277\"\024\341\277tw\026>\254\037\317?\321[\020?\356\002\t\275\213\212\021?\177cw?\305\362\321?\323o\267?\377\341\366=N\372\262\276\026\016\315?*\014\315\276]@p?\327\254\314\276O\007\363\275\233\017\277\277M\032\021\277\016F\313?\344\224\326\275\264S\221\276*\033\236\277\263\004\362?F\305\242\277\275\370}\277\363$\217\277\010T}\277\211\334\350=J\232\355\277L\242\331?]\327\315?\247\275\t?\213\234D?W\347\276\276\255[\231=\263\tn\277T\224\311\2770\202\362?\201,\300?\342v\274\277\241~\212\277\004r\217\277_;W\277j\353\256?%6\260?\264od\277C \216\277\315\361?\277\370\2549?\302\251\014\277\302C\331\277\t\311\207\277!\346\216?H\212c>w<\326\277\366.\"\275\245$\361?\346\224\261?\362\377\223>\213\013\252>Z\360\244\277\007!\251?\313>;\277\025YS\277\207B\261?\275\014\337\277\313\200\261?\365\375\362\277\034\257\265\277\310\300\360\276Y\256\363\277c\267F\276\275e\224?0\251\335>Z\007\221\277!\2353?\002\213\223\275\252\353H\277\353\350\333\276\3117\355?X\030N\277\305\324\364?\270\221\204?\004&\273>\264\000\231\277U-\241?L\220\256\277\353p)\277\351\263w?\236\'3?\277-\361\277^E\307?x\245\005?\351G\372\276jag?7\237t?6\240\311\277\206\234\035?dE\323?\272O\356?\274\342k\276\223r\225\276\007\346\235\277Y\352\305?\013y\232\275\203\266\303=\323\207\371\277N\025\372?\316\310\206\277\323\223\311\277[\212(?u\301\205>#0\001\277\311\204Y\277e\230\372\277f\267\250\277u]\341?\274\327M>e\010\256?\036\344\360?\033\0241?~\367\335?o\233\023?\300R\'?wF\321\277@\034\341\276\243+\206\276\234\177p\277m%\227?\177\236\020=X\003\266?\365\247\350\277W\221)?ZJ\025?[\366t?\340\247\302<\260\346\236>\tV\265\277\256\001\252?\017\336b?\021\001\212\277H\376}\275\r\030F=;;\330\277\025+\254?\n\336\327?\316\323G>\274\005\236\2774\207\336\2767\227\275\2774\262d\277\353KP>\2766\200\277\315\317\020\275\267\220!=^0\252?H\360\240?jI\321>A\242,\2776ms\276\344\332\243\275lh\267>\2217U?\344\217l:qI7?s\025\030?\334\037\367?\341\177\001>>\262\322\276\356M\010?\030\346l\277\247\370\252?\2443h\277\004J\372\277\350nI?\351;\317?\363\030\356?\014\3428\277\207\'\312?\261\356\336>\214\316\347?\231L\373?G\252\201\276\211\231P\277\211\366\245?\"\2768\277\"\255\200\277\010\331\004\277\274\244A>\331\257\016\277\244\017\t>\034\t\333\277\\\366\227>Tg\276>\'>\035\277\301\006\315<\274\377\224\277\367c\322?\342\343\230\277\327}\235\277\310%T?\210\205\315\275\227\300\215=\214\n\274\274\264\003\237\277\377\3263?\275+\371\277H\314\263\277\311\231\373\277\037\230\354\277\024\373N\273\310\303\356>\300\261\374>\331#:?\342\253;>\200\262\020\277\231o\005?]_\222?\267\242&\277\364\004\344?\345!\032?\256Lf\277\251e\377?@=\301\2774\032\r?\306\367\253\276\236\330\353?]\276h\276\355\336\236\276\204J\213?\212_8?81\032?z\360\267\277eX\232\277\370\021\353?\210|\004?K\365\034\276\347\200s>\244\240\345\274\354\000\215?\275]\203\277x\312\354=m\\u\275\304\201\313?\005\241\374?\"\341\263\275\252\th\277\275\307\244>)2\325\277\301g\212\276\2079\342\277d \316\276\241z\361\277\027\340-\276\026\036\374>\037\263Q>\002\221\217\277\035\256\321\277\033\010\002\277\177\3730?\250\232\272?\351\256\366?#\022\244?\004\372\016\276\341G\311\2777\352\201\277?n\341\277\362Z7\277.\307\246?\336W\207?q\334f?\365|\010\276\327\305\245\277\235H\315\277\030\022\376?\242\026e\277Z;\311>\276\254\376\277\350V\322\277Wr\227?L\017\213\275B\305\322?\0061\357\276\226\213\300?\262\205\302\276z\321m>\242\372\200\277\253t\262\276S\277\373?$\366\202\277X\270\010\277\314\200\233\277\311~\377\276\356\005\277\277\224i\250?\266\277\213?\203\236.?\276~L\277B\214w?yC\031?`\256\367\277\"\037&=c$\302?|\262+\276\275\374\322>P}v\277\025\267-\277\204\314\343?\270Xs>Z\n\322>\370\325\n\277u@\336\275Xj\365\277\206~_\277\270\000\327?3\271\211\276c\032\271\276P\371\317\277,\\\177\277n\025\226?o\\\320\2771f\243=E\301\251>\253\336\254?Y1\036\277\200U\234?s\336\313\277\350\353L?\362)9\277\241\031\374\277y\017\216\277#P-?|:H?\214\306\205\277\301\324\330?\320iU?\021\005\337\277\246\331\305\276\361?T\277\262\304\202\276\376t@\277\004\311\245\277a\026\331\277f0\353\276\302F\335\277\340\354\017>\031r\306?\\\204\340?\020\320\037>\257\263\264?\234#\352\276\332\365<\277L\200\322\277\314\0224?\263\330\354?\300\0050\274\275\0004\277\345\344\253>\221}\302\277]\361\207\277;\306]\276.\031&?\372\360;?\037ba?\"\241\271?\315\326b?\326\266)\277C\244\265>P\323\324>\342/\236\277*\240\014=\037H\241?\315?T?\026\227c?\2230C\277@\340\310?\207\237\356>\324v\315?\334\003\233\274\204\232\222\277\336\311\343\277\022\215\342>e@R\277OG\233?q\005\276\277\177H\361?\037:\244>\371D\035>\202\351\220>K\241\336?4\335D>vGS\277\261\t\246\277\211\370\233\277\305[\332?\355^P\276\242\314D\275\262\241\225\277g\233\342?\033\324;?S\271\254\277\3402\260?3\023\206?\300R\302\276\331\033\272\277`\037\231?S\004)\277\004\334v\277\037`\033>{~\300?.|\373\276\020\223\372?\017\314\265?\232\356\237?\004\246\334?\343\321\355?w\217B\277j.h?\241\350\252?Z\305\247?l_\254?WV\224\276Y\345\010\276u\\\367\277\256\032\363\277=7v?%\326n?N\351w>k5\333?\357j\312?\027\314\201?\303\305\\>\323\374%\2774\250\214>\222M\367\277WL\320?\024\337K?mf\255\276\222\324\034\277\344\255\316\276\036e;?\027\333\250\277\341\354w\277\340\341 \277A\204\017?t,\245\277\255=\253?$\026\276?\231@\272\276\374\3707\277\244V\250\276\300\247o?#X\237\277\023/\016\277!r\n\277\256\032\237?\n\371\271\277Pd\223\277m(\243?\245\371&\274\255\260\265\276\376V\332\277\025\231q?\314 \n?\320j\356?1\305\211\277\302\357\227\276\027\351\311?+t\374\277\376\023\377\277w)`?\216*\375=j\004\274\277\372\377\321\277\205\220\230\277\030\336\272?\033\016\226?X\017q\277t^\314?\200s\236?g\333\223?K\020v?\341u\252\277SB\022?\031J\006\277\331?\223>\007&\222?\201H\260\276\200\364\312\2778\020\301\277,\377\270\277\377f\252>\200\332\343\277\247>\037>\2379\271\277\276\313X\277Q\323\222?a%\317\277\241\304\350\277\223\211\343\277\342\230\375=I\013\361\2774\210\233>\270\360\234?\324\024\302\277\311y\201\277\005\235\230\276c\340\230\277\212\341\243?\307\243\370?]\263\331\277\212\r\264\277\301\224\002\277\265<\265\277\343\315\375\277C \317\276\364>\335\277\361\037\334?\337\016a\277\030\373\000\277Q\262\247?c\247\"?\301\223\007\277\\\002\263\277VP\206\276*\211\272\277^\013\261\276+]\035\275>h\301\277]\242\n\277g\016\361\277\312\020\334?\372\241\326\277\264\252!?\241(0\275\214\013\366\275@U\362\277\367\024%\277&\352\005\277\223z\331\277$D\352\277\364\026\316?\232\221>?\225\t\274>\264\026\001\276\333b\322?!<z\277\252h\256\276GY\242?\377\373I\277\301\032\207\2776]9?\t(\370>\371Pq\27780w?Sr\214?M\200\372?\377\003\001?\334 \377\276K\n\317\277\225\002T\277\352\326h\277\3030\252?\225\224W\277\355\337\305\277\3312\204\276\246T\241\277\257E\006\277;<\365>\331\024\345?!\313U\277\'k\235?]m\"?\025I\202\277j\315\314>\343d\212\277M)\317?I\354\363?I\006\"?\275e\214\277\254h>>\376\327\212\2771UN\275\3408\204?\031\366\036\276k\207\226\277\257\316\364\277\007\331A\276\313!S?\313\241n?\270\275\306?3\220\340\276\205\275\267?\362\253\210\277*7\340\275(\212\217?u\375$\277\360\264\250\277c\225\362\277\t\024\027\275\271\261\252?\224\366\006\277,\311\013\276\2008\006?\021E\237\277b|\326\2776\302\234>\372(\032\276\274\242\205?\213\257\r\277$\036\364\277o}\333\277R\373\270\275U\234f\275g]\t?b\266\261\277\323\375s\275\261J\213?\037w\372\277\357\353\021\276@_\363? \323C\276\377\235\335?\360>\201>\274\016\235?a\177a>\022\242\037?u@\331\277\273\230\224?p\313\222?\211R,?M\002\216>}\004\305>\365\357\374?\331\332\211>\340\272&\277\340\367\014?g\"\033\277\315\004\207\276&\214&\277li\250>FC\233?\n\250\305?0\210\315?\353\374\316\277\3679\245\277E\302\272\277\006[\305?\354m\260?\367\201\033>(\374\317>\357 \342?_\213i?\363a\376\276\300|\032>\200D\231?\264l\000\2773\310\222\277\323D\312\277\326\004@?\321?\314\277\314/\224>\340\367\351?\233Ub>\241\367\372>{\204\360\273\246\256\203\277S\373#\277\275r\351?\302\330\240?\313V\252\277w\211\305\277\360G\351?\233\273\024\277\276\212\366\277sX\336\277\345\241\236??\313\010?;V\232\276\033\001\341\276\232\245\331\277\003\335v?\321\'\315\277\\\310n?\333\033v?\352\370\260?\275\000$\277\271y\244?O\243\217?1\250>?\227\207J?U\333\326?\010\274)\276\376&0?\275I\372?\3740\274?N\206_;\342\200|?\243\324Y\277v&\020\277I\331\357\277\351\'\253\277r\260\023?2\357\331\277\274\016e?\317\336z>v, \277\325\032\210\277@N\202\276\232\016\323\277\253<\315?\202\315W\277\223D\241\277}\233\352\277\363\330\205>\334\316\322\277yN\377\2778!!\277\312ZC\277\313\024\204?\0336\240?\332\306\210?\323R\341>\255\357\310\276\252\3300\277Li\202\277y\020\240>\237\336\373\276\303\r\177\276\326\313=?\206\204\253?\363\333\355?\344+W\277\265\366\362=\315\240\364\276\250I\330\276En\325\277wMw>\254\324\331\277\360\351\312\277S\263\352?\305\331\344?\232\275\030\275\242{\254?\252\352\225?C\217\244\277\322V\245\276L\214\037?\247\031B?\374)\005\277\240\331\313\277\266N\345=#\265I\277\370\363\364?\272\"o?\243\360\360\277\315P\\\276\351\335k\277=[\033\277\377(\255?v\n\t?\317q\351?OP\345?\214\246\363\277\344\251\361?f^:?\004!\034\277\225\347\'?\013\345\266=1\177\327?\260\n\205\277E\241\224\2771\215\334\277\205T\356?)&\353?\253\n4\275\t6!\277\205w}\277\013w\313?V\342\337\277\270A\203\276-\202\203?RzV?\311\177\375\277z\327\337\276\034A\271\277\036\213\205\277cG\206?\355H\275?\206\021\201>A\273\222\2770W\232\277\325\332\\\277\253\0218\277\372\220&\275\320\270\203>W\230\332\277\343?\362\277\343O\352?5\355\243?v\301\274\277\303*\324?\253\311\376\277\371\007\330\277\327\004\266?U\314\364\277W\274H?\351\243\305?\367\335\200\277\034W\343\2771\227\337?\005\340\t?w\343\274?\275\315\225\275\303\207\353?|Y#?\242\023\332?U\335\326?\313\361$>4\013r>\255\t2?\343\246\236=\036\031\303?6c\360\277\240\355|?\325\353\226\277\200\204\244\277\232b\323\275\375\214\025\277E1/?\rY\231\277z\336\362\277\000\036\253\276MX{?[4\027\277\210i\363?d\314)\275-\321\363\277\036U\271>\363\356\366\277q&\353\277\223X+?\227sG?\230J\337\276\3572\221>R\266\237?\317\344K>\227%\354?.\026\000=\337Y\363\277\316D\366>\014dN\277\003\265\234?\240{\343\277\205\350==\303\205#\277A\322y\277\022\320\335>\262\376\237?\262\301H\277/\035~\276\017P\007?\303(8?\233\3477?dQ\323\277\005`\240?\014Q\215>~\204z\277e\025\347\277\316!\366?\025q\231>\220\343\213\277>\233\n\277p\250\371\277\274\022\300?\023\027\004>\024\361\250?%\230\360?\306wb>\246S\253\277\343\016\200\275\231\315k\277\367l\235?\027Wj\275_\360\353?bP\363\277\342+\036\277\337\307\260\277\007\n)>\237 \360\275s\031\301\277\354\374|?\304Q\242\276\252H\373?\367\004\246\277\326O\372>\374O\317\277\345\010\375\277R\304\236\276\275\236$>\245\212\336?m\322/\277\317\376#\277\323\020\241\277\300\033%\277\253\271L\277\206\245\361?d\037\225?\301\017\236\277\341\335H<z3\311\276\004\223\354?\320\362\350\277\327\353L>\304\277\264?9,\351\277\037\031\334?\007\264\213>\236W\256\277\253`\206\277\352x\200\277\365\265\267?\323\216\276\276m6\245\276\272\370\260?\327\246\221\277\205\361b?ucl\277\016E\371\277\205\267f\276\363X\365\277\230\014\356\276\034\325\330\276:\315x\277\254\301\360\277\312\303\320\277\023\\\357\277\347\265t\275v\014\306?\234\300\227>UH\335?\014\356\344\276\013k\361\277*\312w>v\306\237>\251\327\233\277P]a?\262\241\355=R\263\364?&pH?6\337\251\277\270\210\270>|\226G?!\352\350?\345\246\243\277X\252\260?\303\360\233\277\037\032\216\277dy\311?\345)\262\277\201\323&?8j\262\275{\372\227\277\236\036y\277\235\207\235\277\302=\324?\357<\221?\234n\223\2776F\376\277\223\247\345?\311+\000?tD \277\374\210\224?m\267B?p\254\266? =\321\277\362!A?\203\377\204=\257E\364\277e\277\321?\201\036\n?\211n\234?.\366\322\276r@\217\276\020\306\215><\244\354\276\\\252\342?\334+\346?;\241\"?k\003\206\277\230D\356?]\227\370\277\216P\351?-U\242\277b\271\366<\277\360\274>X\373\245>&}\203?\266\257\202?\177F\212\276\277\037\214>,\305\260\275\351\006\242?\0042(>\331\242y\277E8\232?\351\351\321\275\236\245\364\277\032\273\364\277\2737\277?\247p\362?\243o\300\277\324k\231\276\344@\336\277l>\250\276\010\235\256?K\014]\275\332H\232\277\002\006\232?=0\331?\231H\237?\317\027\353?\214\254\007\277\234\263\224\277&\201D?\244\036\252\274\213~\373>\322\036\220\277\016\241\207?\340\377\220?\205{=>~\345\336\2772=\325\277\247\014\257?\200\263\010>\232\306\214\277QZ+\277\353\270\010\277\r/\252\276UU_\275\242E&\277\242j\360?{\213\252\276\356*\277\276\021=\343<f\024\270?`T\314>\351\213\345\276\207\274\350\277g\001\201?y\237\227=\213)\343\277o/f\277w\nU\276b\"\211\277.\210S?f\024\267>\252b\357\277;\203\216?_%\366\277_\037\366?\233\000\253\277HI\261?\232,\215?\227>\354\277!\367\353\277M=\357\275\355\035\272<\324e\243\277\336Q\367\275\337\234q=\304h\234\276\305X\255=\025M\203\277joi?\253\210\354\277_\314\332?\025)\363\277\242\353!?\204N\303?;[g\277\303h\230?\202Ip\276\337[l\277\3011\t\277\331\320\265?O\246\277\277\207\360\273?\310\356O>P\354\376\277\347\302X\277\207g\240\277\345\326\311\276\005e\035?U\006\036?\272\367\324\277\016\370\257>\215\321\007?\035\005\241\276\333U\313\277\370\232\300\277\335\242\320?L\017\205<\216\316\204\277H\374\365?\024^\244?g\237\277?Ad\007\277\337\374\035\276;L\364\277kP\262?\263i\377?<`\263>Ej\024?T\340L>\266\006\205?\001\261n\277\010]s?\331Ng?\207Y=>\020\022\242?\212\201\255?C\255/\277<X\332?\204\264\206?\321 ~\277\336\030\371?\331\001\215\277S\213\031?5\010\360>\245\005\320?\023\233k?t.\302? }\016<$[\340\276 \006\007?\263\370\262\277\243&\275>+B\221\277\036|\322?\\\364G>\177m\316\276\226H\334>\227Q9?\313*\302\277\226\370R\276\274\n\202\27781\361>,\231\370\276\371\250\362\277\256\t\332>\266\364\263?W\312\373>\356\0041?K\245%\276\312\240 \274\322|\014>\335\020\034?\372A\333\277\002\214\240>\247\251\r?\025 \301?\271\334\216?W\214^\276\253I\203\277\320\032\312>\345\362\312?W!\303\277^\367\037?Y\244\247\277Wv \277\346\245k?\311\361\205\277\017\177\007\277E\271\255\277\275\215\240\277\377\341,\276Hz\354\277\202=\346?\271U\265\277\314\030=<\337\354\257?\316\013\001>^}\363?\337{\361\276)m\332?,\335\317?]\023g?\'=\206\277\037\372f?\206\013\256?7\364\372?\334(X=\257h\266\277\245\255\363?o\030\317\277\034\033\363>\300\031\035?\016gK\277\253(\345?!.\352=\345\"\202>m-\033?\004\257\333\277\037u\352>\t\335\367\277\240?%?\3110\336\277\276\251z\276\345\373\307\276&:b\277>\274\235>\273\271\005?\377\3407?z\331\226\277Nr\364?\021\211)>$\322\237?\210\n\253=\347\n\316\276jb\335?ju\330?\023,\244\277\001\215\236?\357s\301\2775\341\313\276\312\222\327?\343\364\341\277\365\0019\277\202\201\207\277A\376\247\277\024&\377?\230p\355?\244j?\277Mz7\277%I\260\275\263\266\203?\270~\337\277\340AU\277[vz\277\201u\217?]6Z\277\370\302\n\275\235L\247?\365 \262\277?V\302\277\2226H\277\241\336\301?\002\364\225\277\314\262M?\373\262\340\275_~.\277\332\263\266?\351\034#?\323\2663\277.\020@\272\210L2\277\222/\243?\352w\312>\323\024\t\277\243\302\347\277\031\302\246?U\026\334>{\r\204\277\"\034\376?\335\316\211>\005\214\362\277\214\004\257?\0167\323?\037I\235\277\244\311l?\005%f>\274\334\007=\035\344\341?w\203\223\276\217\322\215\277\247\007z<u=\212?\251\365\273?kp\017\275\010\376\217\277\245\002\354?j\347\221>\367\270-<\303d\257\277\366\034m?\300r\256?B%\322\277\241\372\362\277\371\334\354\276\326\001\346?a\340\202\2777)\330?\351\231\343\276d,k?8\317\311\277\251\310\216\277\240\t\247?\302WF\277\021\232\264\277L\252\263?\0323\212\277\240\321\035>\332\277\374\277\025(\354?\241\256\204\275GT\341?\243\001;\277\242\023\262?\272\374\r<\231\201\332?\322\370\334>\244\354\373\277\354\030\375\277\342\023\260\277\263\000\241>\354\004\302?\3206\201\277\274s\345\276\027(\266\277\351z\237?F\222\233\277\325_\372\277\2612\370\277\205?\203?0\256P\274\3627e\277\341b\345?\363~N\277\214h\224?an\277\277$\211\240\276\364\310z>\371T\373?\200\250T\277\001\332\325?}2\236?)\277\001?F\233\261\277\024f\225?\320j\205?BE\341=\247\0321? C\331\275\251\347\200\277b\031\216>\374g\263>\347\317\326\277FQ\271\277\260\035\r\277ag\373\276\241\323\334\277(\023\376?4a&\2778\304\377?S6\246\277bz\247>\010\247\351\277\311\372\371\277g\010>\276\310<\217?\245<\270?E\305n\2771(\200\277jY<\2765\326\225\277N\257#\277\251\300*\277\352=*\277\201\211V\276KK$=L\306\305\277,\242\216?\374z\304\277\324\021\377?\356\241\373\276|\020\353?7E\311?\365\036\210\276\243a\255\277\004:\207\277\252\367\235?\2522`?\342\237\207\277\331\3614\276\226\236\027?\324\007_\277mk\200\277\261x\275?\013\266\224?E{\027\277\232#\333\277\323B\337?H\n\265>&\254\367\277\201\256\220?\232\370$=\377\346%\276p\243\342<os\253?.m\315\277\201\220\344\277\351\261\203\276a\3568\277dp\302?\262G[\277\373.7\276\034AD\277\323\220\364\2774J\014\277\nVb?\023\212\334=\013B\347\276\364H\313?e\373\310\277s\032\007\277\311\302\013\277\t\250\341?\353\2535=\027\375m?b\215\350?\213\221\253?\222\337\214?\010^\020?\242b\236>\237\355\270\277\213\300P=e\256\372\277;Am?\275\255\334\277\235X\321?\334[\247\276\370\306\334?rr\302?\316B~>\342\363\273\277\347C\001>\327\3560\277\324`\377\277I\220}?\363v=?@\340;?\323Hd?e\321\307\277\203\0036?[\'\215\2777\236\361\277\247\r\320?\373\351\337\277\277\372\331\277c\243\364\277\013@\'?\002\212\347?\255\177\273\276(\006W?\265\357\210?*G\006\277f\213\017?D\263\306\277\027\305\223?[\'\263?l\0171\277aL\376\274\252\313\221\277\312\002\300?\255`\235>\300\335l?\250\364Q\2765R\014\277\225\177\264\277X\350\375?\001x\376\277\"\275I?\345]\030?\010\352\311\276\272\256\002?\237\376&?\275\004\003=\247#m<\335u\305\277\270\353Q\2777E\327=g\344x\277\241;@\276\334DD?\216Z\335>.\241\267?\247\360\252\277\212\265\245\277\275\372g?B\366T\277\366\014\213\277n\204K\277.n\264\277\362\325\276?\006L\033?;\236\206?\337_\261\277\031n\373\276\264m\201?k\033y?\205\037\312?\236\342\360\275\330\362\375?\327\316\024\276\272#\220?\241\3275\277\364\263\352?_\337\305\276\261,\203\277\327\334t\276\331\370\350>\3359\346\2767>\337=\244\275\270?\276\217\002?\250\022\357?)\230\263=\323\267Y>=\223\351\276(\312<\276\224\355S=\001\322\335?\372\204\302>D2\330?\233E\265\276*N\225\277\331\024\261\277H\177&\277\345rx\277\370/+\277\340\236\220?J\322\261?s\220Q?\333&\207?$\273F\277\221\227\312\276\336\033A\277?\223\224?\2064\313\277\"\254\301\277\200&\306\277#\275g?^\272j?\027\225\213?\200\346\321?\272*\233\277\352\371\256\277\361\n\276\277V\000\302?~>\245?&\010\010?\277\353\362\276\204-C\277~\016\364\277\323\005\302<:w\223?\022\320\326?d2{?dT\357\277\272\240\376\276\t\254\200?\315\251\214?\235P\253\276@\346\365\277\023,\373\277\257I\310?\006\230\236?\267\237h?M\320\346?\301\001\322?\001W\371\277\307\211\266?Q-g>\306\242\020?\236\t\223?\013\017\346\277\214\342\316?\360hr?M^\337>\352\206\277?\007g\025\277\220\262i\277\266s\221?q\340\232?\373\316\321?\360m\205>\204\346\211\276\343P\231\277\362H\233=\033\016\266\277\263\332\341\277\031.J?$fM\277\324\235\031\277K\210\001?\"O\251?\256\210_\277\273\233\334\277\375\306\237?\000\311\231\277\250I\364\277&\2429\277i\t\234?x\353\351\277\223\030\347<\230\3422?]`\342?\242l9?I\3654?\303\035\204\277\251\016\314\277<\033\305\2770\331\300?\220*U\277!\377\347?;\332\330?\347?\377\277\256\223\367\277Z\215\213\277\215\246@\275\025\025\016\277\230\033\336\277Y\374\346\277\274\275X\276M\202\233\277\205@;\276\351\346->_\202.?B\246\227?5\253\317>\343`\222?\276\255\376?\324\226\357\277\253R>?\251D\202>\306R\330?\353\354\202\277\274wT?0\375\t?\316lk\277\271\2424\275U\367^\277\364\222\333?#\213\254\276\234Z\025?\276^\306=c\327C\277\360E\274\277Su\360\277im\211\277\235\342\305\277,/\215?T\262\301\276\240`\351\277\230M\030\277\210\236\337?C\021\362\277\306\215~>\326&\271>i\r\347\276o\005??`;\273\277^\363\260?\361\346\343\276\276Q!\277:<P\277q\356\200\277\3623 \276n\327:\276\342\240O\276\350\241\341\276\377\201\346\277\370\032\272?~\234\333?+R\033?\306R#?\310\277]\277)o\252\276\232\250\236>\004\342\317?3\221\227>\350\327\361\277\241\350\347\277\354\340\336?2~R\277\376\000\335\277\356\352\215?<AN\277\241\261\271?\327\236\300\276\032,\201?\033hF\277sG\030\277\3517\301\276\270l\r?\372\367O\276\241\362\010?\241\375\037\276I\363\265\277\022W\316?W\263\232\276\252\260\315\277\036\354N?\351t\346\277\330|\023\277\342\215j\277\217\216\354\277q5\301\277\211\217\301?\365;X?\217\223\203\277w\014V\277\n\227X\277\307\"*>\341\225\302?\343:\253\277\000\332\270\277\271\350\230?97\315\277vX\310?6{\352?nQ\\\276\360\270\333?\034\357\343\275$\264\372\277\354\354\251>\232\205\234?Y\373\346\275\n\221\263?\340F\216?C%T\274<-\366\277xJ\343\277S?\313>\350\357\323\276\3369?=\r\216\207\277\212\374\330?u\307^\276H\215u\277\345\214d\276\005\3261?\253\203\335?\025\357\003?\245\272\262?\323_\324\276A\204\234?JYZ?\002\266\010\277\374:\310\277\274\332j\276\312\2647\277\252\366\342?[\355\"?\024\241\220?\\hW\277\374\360\003><2\275?+0J\277\337\350\307?\227\320j?1\237\313>\236\272\350?Tj\272\277\332\233\351?\3370\341?rZ\331\277\0361\253\276\010L\264>P\2326?j\325\301\276\373g\266=s\353\304?&\001\333\276mb\200?\224\\/?\023\246\325\277\'\203J\277q-o?y\265^?\312+\216\277cY\343\276\374z\365>d8\354?Z-\326>Bqg=\253+\006\277Z.\305\277\004\031\345\277`\304\311?\331,\325\277\024\305\257?X\037\266?\266\216\375\277A.\001\277\005\246\345\277\021\352{\2767\212L>\366[\340?<\214\227\276\253\206\264?\013\303\333\276E6\321?\247\"\246\277\203\274\320\277\'7u\277\274J\372?=\340\300\277\377\241\305\277o@:\276\274Q\255\277:s\335?(K\321\277\004\037\357\276P\266k\277S\247Y?\317\207\325>\\\374\n>\232^\311\277\310\227\303>\272\356\336\276\326d\331\277\277:\304?\315\335\367\277\020\311\224>\313\314\200=,p\014\277\027sk>\327\333\234\277!]\235\276\026\266\303=%\374b>,\000 \277*Z\035?r\353\226\277g\364\366\277\324h\222\276\240l\231?\027m\316?\205\231\200>\314h\360\277\335\331\342\277\266\024\203?L\261\230?;\224\354?osO\2779\234\243\277\271\273\206\277\366\035\227?\025\337\261?~B|\276Or\025?O\272\200?\364\271\203?\346d\342\277\006\303\271?\013q\251\277\222\254\350\277\343\255w?\\\007\351?\024i\226?\201\206\304\273e\312a\275\"Mu\277&\314\177?w\250\214\276\036F\217\277\230r\211\276\272\021\244>\315\210\325\277C\312\372\277\341;\224\277\276Q8?\333\'\242\277G\266\232?\201\210q\277\260\370}\277\321\234\336\277\247ke>\016\313\314?%U\354?\003\235z>\224\256o?[Z\036?\342)N?\024\250\'?[\213f>\266(\310=\022w\205\277H\373\360?\326:z\276\216D\350\277;\003x?\036\313\344\277\367\214\361\277&\354\300\277\312J\177>\225H\257?\'\2557\277d\360\345><\020\t?\020\345\343?\227\201\260\277\365\004\236\276\t\341l=\200\366\252?a\336\213\276z\272\272\277\347\177\334?>f+\277\024\314\204\2779.\242\277\367\250\016\277\245!\232?y\334\014\277J\002\343?-\237\334>@|7\277\276i\324\275\311K\357?S\203\314\276\364\267\370\277\332>\246?@0\022?\330P\256\276\025\244\354?}\323\320?uI\240>\305\200\r?\037K\232\277pU\375?\341Z ?\330\217p<\277u\335\277\r\342\236\277\353\207N\277/2K\277V\307\320?s\276\300?\320\034*?\007\313\345\277R\001\335?\256<H\277{\037\317\277b\022\372?\010<\302?\217\005\271?\302\334\211\276\212\351\245\277\025\305\312?8\260\204?\006C\032\277\312\311\225\276\"\313\014\277\022\177\331?\006\320f\277\257M\013?\333\257\327\277\245\272!?\356!\316\277\271\037\313?$\337@\277A\031\312?\006`\272\276*\003\226>\265_\336?\242\332\342?\312\352X\277Lo(?2\344\217>\377&\214\277\204,\353\277\266\020\373?\373H\227?\241\037\220?\216\354\257?<p\017?\006\025\330?\333\222\033?\325|\374\277\343N\302?(!\260>\277\226\017\274<\243\025?^>\213\277w@\277\275aA\200?\360to?\344\324\200\277\001\201\223\277\324p\371?\246\204\355\277\317\202\273\277@=\211=>\036\340\275\304a\360?\272p\353?\376K\201>\000m\233\276\326\3617?)8\213?\377\322y\276U\236\267>\344\200\346?\327\353\241\277\216\245\360\277\327yg\277,F\027?_`\"\277\301\006\205>\365\003\354\277\355A\255\277\027\351\032\277\321`\322?$I\"\277\013\326x?\006\024`>\337\010\344=\365\353\237?\325\302\271\277\331\377\347?DC\301?W\254\245\277\001\356\343?w\306\200?\274p\230>3@\361\277K\261\340=3{\330?\370\347\212\277\014\212%?\304/\322?\370\t\203>\tz\343\277\246C\233\277<=\353>\n\'\354\275\217\257\307?\210L9?%4\230\276B\315\017\277Vs\306?<\207\241\277z\'\346\277(\212@?\016\\\200\277\251\025_\277\307\\\224?\t\216.\277\255\272\"\276\224\346 ?\023\261\330?\211\245\351\277\367\240\322?wS\234?\211\344\240?\002R\261?;2\275?)\224\335=w\313\210?{\350\265?\252MZ\274?\262\023\277B\306\232\277h\270A\277\226fh\277\240\233\231>\3331y\277\0303\235\276\3209=?\021\324\250\27733\351?\322\276\276?x\241\376\277YZP\277CZc\277\305L\330?\215{\177\275\275\220\030?F\225\250?g\321q\276\247%M?e\\\367>,\026\206\277\222\332\263\277^1\000\275\266H\375\277\376\324*?uh\350\277g\004\324>8\004\310?\201\354\311?\371\236\240?\016\332?\277.<\227?\365\356\005>w:\272\277#\265\320?\375\324%\277\023\314\276?\241\n\027\277\266\206\003?om\214\277\320\213\027\276\213\233w\277\241\010\241\275\212O\213\276\3130Q?\343\037\306?X\325\205?\317\365\357\274\212\261\302\277U\345\220\276\0339\\\277r\021\247\277\343\370\200>G\200\245?T\016-?;(\022?\203A\334\277z\247\315?\332R\376\277@\006\371\2777@\253?\265\324\336>\333\247,\277Q\356\217?\326\367\352\277)n\206\277\217\253\236?\233|\257?h\376\020\277\001\216o\275\247\241\241?\007/\214\274k0\300?>\3129\277\214\240\036?\035<\276\275\361\273&?-Q\263?\372}\252\277R\245%?\326\034%\277\347r\356?L\317v\277\263|\233<\370\332b\277\361\236\305\275\277:\310\2772\344\"\277\222\270\305?\231b\211\273\224\031\222?\271\203\374?\335\210\316?\361\371A>s{>\277\017A\304?\331\366\335\277\233\336\232?x\365\001\277\365\220`\277\006|\332\277\034\000\365=\341\024\246?\270\340\\?\350\370=?\336M\227\276\277;N?K\337\344\276\332S\325>o\355\212\275|T\367?\001\353.\276[\007??\212\226\362\277\312\327\206\277\301y\203?%\344\021?{\016\220?n\311\247?\\\335\022?L\354\233\277\022\334\303=O\r\352?\355\371\333?\355\306\034?\207\254\027\277\300\305\305>\005F\300\276\236T\201\277I\236\210\277.\327\264?\rD\302\276\202\\\374?\247\237s?\377;\320>\365xq\274\273\305\233\276e=\222\2779O\344\277!~\257?B\354\320\277\341X\367>np\356?\222\326\022\277\253\3245\275\355\347m\277/Y\353?\276\302\350<\243g\374\277\222`\351\277\03483\277\260\300\302\277\257|\255\277\245v\264?JZ\010\277-\307\"?\2166\333?\344\023T>\333\262\261>\326\007\331?\016\232\274\277\220\324\332\2778\235\346\277\215\360\203\277\2664\320\277\346^v\277\004\307\321\277\304\3771\277\303b\320\277\324\317\334\2773s\\\277|\326\356\277y\222\253?C\243\214>\326\203\335>>^\202\277\260x\230\277\260\332\267?\373A\220?wZ\256=\323\361\017\277\252pS\277O\345\222?y\313B\277\301\231\261?\232\247\215\277\300\224/\277\"\207\261\275\300\276\313?Es\366=\216s\273?\260\234\344\276\310\361\340?\207\005F?~\341\223?\323\n\366\275/\330\363?\217\340\345?\336\211(?\332VY\277k\003\332?\"k\016>*\310\252\277\323\374\200\277\005\376U\277\266\r\251?\373\314\256\277\314A\243?\226\030g?\371\355\375\277\351\336-=\367\220^>\301$\272\277\266\372\373\277\\T\231?\'9\370?7\220\272\276\t.7\275\326\352_?~\214\242?\0074\315\277\016\010\365\277\235\246\310\277\2725\235\276\246D\325\277Y\336\330\277Q\364\256?~\200i\277{\324\303?\322\221\244\276\306\214\217?\221\333\037\277#H\373\277\363Y\232\277-q\217?\203v\311?\320\025R\277t\307\277?M\340\316?0\027\362\276\214\260\006\277\244\003\333\276?\324\274\277\361\320J?\023W-?\275\353\313?\223\251\306>G\236\037?\217\213E\277&\372\354?}\013\253?\325\244H\2771\032H?\273\257\342?\264\367\267?\036\177\021?*=\306\277bD\336?J\202i?\250V\206\276~O\207\277I\203\307?\222\250\251\275]\237\343\276\320\207\376\276\213+\210\277\356)\373?+MO>l\222\353\277i\033J\277\366q\215?Mn\t?a\242[\277$\342\227\277\217\316\364\275Yx\260?\225\317\204?\305\017a>\242\242\367>\257C>>6\226h?\034\346\313?zM\364\277\016\235\341?Z\003\215?\020v\340>\316\013\000?+4\266\275+=E\277P\357\322>\022k\333?\rK\247>)\215\270>\274O\025?63<\277\246K\221\277\356b\205\277\245\366P\277\004T\243\277m~\360?e\377\253\276\230\r\226?n1\304\277\257\315 ?\031W\355\277\227\367\323?y\321\036?\224\366A\277\021_X?\t4\263\277y\223#>\374\177-?\311\235U?\022w:\277\022\256\214\276\256\3723>?G\365>-\313\003\277\267\377F\277w|\212?\200\271\300?\000#d?S\206\030\277<1\215?\303\256\326?\026\030>\277\372\265O>\366Q\025?\216[\257?\330\316\356>\272;\262=\002\002\350?x[&?\223\373\205?\006\001\214<\3070~>F`\207?\000\241\350?-i\315?\347\020\272\276\300\3018>\324T\307?\257P\\\277l\001\227\277\215]\220=f\021\223>\031\260\340\277\031\316\377\277D,]?\277\271\376?1\341\340\277[\221\304?\343pf\277+g=\277\204\314\345?\233\245\266\276\000\277\260?\017\203\307\277\216_\252?Om4?\321c\320?\352\334o\275\271\252\024>\251\032\242\276k\266\337\277@\3537>\270\356\263\273G\372\361>\375\242\254?\214|\303>\0019\206\277\261\017c\277\324\037\225?v\371\375?\301\265\347?\236\263\355\277\222E\333\277\014\370\200?\217\356+?\265\272\032>\245*\206\276\246\033X?\350\347\r\275V*\350?G0j?\022V\237>E\377~?\206\251E\277\325\247R\277\2218\354>\370\003\023\277F\232\263\273\217\312/\277\373\221:\277\345\264\207\277H@M\277\016J\330?\306\242\255\277\0023u?\236jT?\366\035\303\276h$\352\277\361\230\313?\013\203\360?\365\264\321?u\2020>%@\205>\206\265\337\276w4\340\276\377OO\277*A\314\277f(\001\275I\320(\277\347\262\314>\342B9\277\366\257\250?\370\320O\277_\213>?x\014o?\316OD\277\244\326\005\277\035\332\273\277\274\356w?\321b\246>\000\242\271=SG\031?;\305\321>\300\212\254?\365\204\376\277^\312\371\276\003\205\213\277\\\277\214?\300?\340\277k\330`\277\263e%?\035\014\320>\026Z\200?g\343+?\224\323\246?s\354\254?\004\243\312?\317\035\215\277\020;\027\277\"\261\005\277\267B\242\277eM\366\276m\273\n<z\241\331?\\\024\320\277\303\004\363\277\343F<?\373\362\341?\352\007\226\277\224E\020?\342n\202=\275\024\307\276K0\274?\202\207=\276\342\326\352?DV\261?\0317\357\277\217\244\220?\333CO\275\350\032\350?LI\270\277p9\322\2775\212\316=a\236\020\277OEV\277*\361L\276o\033\331\276\204 \356?\t\375\230\276QC\351\277BS\211>\203\365\243\277c\017\362?m\201\352>x\251\231\272\006d\252\277\025\330\274?\222\240\216?t\362]?~\003\351?^\200\006\277\243\355\206\277\242\310i?\373}\376?\263\006\377?\314\224\357>\324\245\234\276\023\371\356\275\026\361\253\276e|g\277\276\nO?\014\236Q?\304\021\t\277\203\020\242>\360\n\331?\371\004\310?94\337?\004f\265\277\216\306\352\276\370\026\374>M\260\277?\376P\005\277\3663V?2\253\300\275\216\3033\276\020\305\000?\360\260\360\277P\006\205?\340\362}\277\307\203\340?\251+\356>\252\203@?\031\214\337?\002\003\320\277\237\221\333?\223\221\341\277\363R \277ml?\276:<\200?a8\230?H[\342\277]\253\017\277c1\341?`\2331\276\312/*?\323g\351>\342@\335\277\323\322\315\277\352t\337\275\322\335\373\277\006\326\205?|\371\007\277}\277\006?2\270\213?\n\263!\277\221\010\270\277\231B\333?1\035n?\177 \255\277.d\361?\374.\230?\226\326\204\277\031\034s\275c\030\320?\025@a\277+\206\263?\036\314\037\277\021Et?g\230\353\277\275\037\363\277\371\244}?\371_\361\277y;\003?\306\313\316\277\365>\270\277c\367\330\277\230\255q?B|\022<\022W/\277O-\207\277\232\331\251?\271\236 >\272\376\335\277\302\272\364\277\255f\264\277D\"m?-<y?\323R\037?!\204\270>\26149?\031*n\277\335\035\225?\277\307,\277@\014\222?B7\347?\373>\034?\350v\t\277\215\305\240\277\257\202\270?\271\334\205\276\270\223\363?\203\250u?\316k\326\277\257\331\274\277\342M\233>\211}\205?\n\234\246\276V\270\275?\341\2142>\266R\325?L;\335\275\324\025N?t)\'=\321\327\374?\363\372\327?\220\305\224\277\367+w?\310i\214\277.\315V?\347Q\377\277\263v\300\276:;\204?\344\n\311>_\006\216\277\256rJ?1\353\232\275\340\324\360?\004h\307\2774\227\267?\005c \277p\3617?\322g\304?l\\\351\276\210It?\023Y\237>\254l\003\277\034\214\352?..\264?K\034\272\277\\q\217?(\016\376?\234\201n?\035a\222>I\353\263?\014L\371?\367\274\306\277\305\276\241?\004\355\221\277h\212\322?3\277s\277\234S]\277^k(\277L\234a?\004\303\232\277F\271J>\016\034\327\276P\246\237\277\222\200\211?~^->\212M\350\277\223W\252\277\356\351\004?s\355\342\276\304\235\305\277\"k\324>\035X\241\277]T\033\277W\314L?\023W\227\277E@\336?\007\214\264?\215\374\331\277R\033\267?\236\027\256\276\344)h\277\rw\257?(;\224?\316\247\275\277\021n+\276:\2511?\003\331\320\277G\313\\\277g0\315\277\360\205\324?wJ\025\276)\367r\275\004\370\231\277\001IT\276q,\330\277\262\300\302\277\236.\362?@a\333\277_\346J\276\251\220\335?>\331\207\277F:\362\277\236\030\367\277\247/\226?b\211\023?\t\010\241?\255\\T\277\366\257\241\277x\362~\277\204\364\031?\240\213\271\277\204\232\315\277z/\317\277\320\255\231\277\316<f?D\305\352\2763\367\240?\327\327\274\277\375\r\364?6j\323?}\000Y=\344\277\340\276\275I)?\016\256\225\277\255\365z?:Ns\277\025_\243?\202\016\025\277e;\231\277\372h\315\277\026\320\343?\2631\232\277rc\223\277\243c\030\275\333\r\371?\304yF\277M\365\206>\032\247\254?\263\n\312>-\013\"\277\330\004\303\277,\352\301\277\272\270F\277\312~\200\275\363Y\354\277\0055V\275\325\215\320\277\006a\377?l\250\206?\265\372\213\277J\264\351\277\361\261\360?\346(\362?\362\'\277>]E\313?\335\020-\2763\336/?\256\206\374?\001Z$>\177\367\314<\315\204\240\277\024\270\337\277\214h\336?\\\205f\277Z\332^\275\274\270\230\276\255\244\236=%\355\316\277^\343\271\277\320\342\365\277a\373\t?\265\340\251?\351C\255?\344\320\267\277\222\215!>}\324\363\277\",\025?\022v\202\277\366:\271?\366U\025\277\264EN\277\364\226\016\276\311j0\277\367\262\362\277M\303\253\277}\331\221\277\37292\277\322\364\023\275\023_\221?#\326\321>\347\222\215?z\035\037\277\305\374\001>-\342\377?\306\037\244\277\306;\341?F\324\342>15S\275\344J\241\2770\325{\277o\357\031?|\365_?\364\376\013>L\326\335\277\271\315??z\222_\276kk\347\277Yi\n\2730\276\371?2\t\204?\365\340[?\370\306\245?B\013\204?\332\363\372?\200>\250\277\004\213\367?qt\330\277\231b\350\275\032_\303\277M,\230?Jj\001\277\005\033\251>\252\217+>\360\344\203?\255%\276>G^\357>\262\225\342\277\217oJ\277\352@+=I\2224?\214_\271\272\350\357g?\322\301\313=\310H\274\277\340\325\206\277\3728\303?\306\214\332?4\257\301\277\263e\370?C\260\247=L\021\377\277\013\342\265\276\273\035\301>b\336\225\277\347\300\343\276\240\254\334>\217\031\332?\255\360\330\277\243\315c>\240\002\216\277\344/\342?\310\0102?CC\363\276\243a\237?\212\"\346?\223K\370\275~\313\312?[\244\341?\034J\030\277\217\266\230>8\200\233?\035\331\310?\217{\207?\275Y\003\277c\341\037>8}\320\277.\240h?8Rk\277\253K\242?w\nX\277s=\373\277\263%\356\275\240l.\277\341Z\224?\300\355K>[\330\342>\000\005\\\276\037p\227\277\006\024P>+\335\265?\342>\334\277\'\353\313?A\0000?\\\262\300\276\006\017\244?\220\343\244\277\360K\004>\243\350\322\277x\240\227>\374\370\265?\232d\305\277\220x@?\365B\306\277$\362L=\313\335{\277:\321\357?\367\260\362?\177\277\324\277cO\316?\204\262\367?\016|\230\277\311\220\263?\260f\301\274\317F|\277\256\r\371?\010\336\\\276N\352\362\2774\375\336?\362\332V\277\031\340W?\216vM\275\026\013\t?\271\336\364\276\272\256\331?9q\t=b3\265?!\320\247\277q\005\'\277\004\356\022\2770\032\272?\321\206\262\277\235[\023=E\314\\?<\252\350\277\347:F?\255\027\200\276<#r?LM\263>\315\250\324?b5m\277\240\336\244?]\332\225?\226\r\277\277\314,\303\277d\200\230\276hs\013>\206\005\001?\367\226\375>c\337\026\275\317\275r\277\177\345\337?\372\376P\277T\246r?\204\232_\277\024\\:?\336\354\254\277\327\031\363?H\2221>w\256\014\277fx\320?\312\232\226?\004\351\354<\034Sq?B\222\023?5~\262\275\345~\347\277M@\377\275<w\273?\217j\271?\246\313\321?Un\231?)}\340\277\212\337s?UP\366?\317\177\217?\222\006\370>\317fr\277\213\260\356<\253\205\274?-\201\271?|\373\251\277\303[\356\277\217|\370\275Y\254\345?I\3410=\203Y\265?I\344\310?,\367\260\277\260fp?\263\033\217?0\351\274\277\347\001\272\276\273\026\020?\030!x>\276>\273>\316\020p\277\347\267O\276\341\2213?\330\177\232?\341\200\221?Y\200\327\277\243\177\234?\360/\275?lX\201?\370\034\323?_`\376\277\232|\023?\010\303\321=\344e\204?\207\010\362\276\023T_?Q8;?\277Ur?\241\036\301\277\000k\323?\2100\210\277\233\207\343\277\216Z\276?\307H\375\277e\347\307?\224G\263?\212\306\217\277\026Y\"\277\327*\375?\351\017\314\277\265$\002?K\260\356?\033\010\247?\213\177\220\277{m\270?\236\263\220>\014\211\242\277)\034\023\276\0317\337\277\206t\207\276c\001\234\277\206\326\'?\224\027T?\277\277R\277c!\344?M\250>?\307\227\302\276\354G\347>\215t\252=\007Q\350?oQ\255?\204z\252=GDb\277P#\256;/\001\003>;\271i\277=\342\231\277^L\235?p\257\341?\024+\351>\360\376\214\277zn\257?`a\263\277\216\314\200\277x^\301?w+;\277L\226\370\276\3207\320?4?\026\277?\202\216?\263\216\375?\307\225\365?_X|?&\251\333?\215\036\207\277CN_\277\320Q\034\277\\\227 ?\313\301\325\277I\027\222?p\036\010\2764h\325?\246\3030?\206_\335\277\241\326\275?G\300\224\276Q?F?Q\253\252\276i\\\351\277(\243\300?\300z\277?R\372\203\277\236\342\223\277\3106J\277\177\270\310?\374\025K\275\033\316\310\277\006\274\261\277E\272\315=\326\335\315\277[\021\205?[\356\315?\337\303\271\277\"9\356?5\362\310\274Du\265>l\276\345=+\235B?\377\376\250?\002\005m?\223\366\234?\323\314H\277*\303\271?\324e\261?\371\317\207\277\237\314\377\277\217\273e?\273\235L?\374\217\231\277\243\370\377?\305\346\013\276\320\203\350\277\335*\226\277\350\261\374\276Q\367\256\276\013b\225\277<\257\227?\325\005\335?\257\272\237?\245n\276?\274\357\322?@\351\215?g\332\214\277u\350\342=\2017\365\276\270]\211?\276c\362?v\'\017\277\313\367\246?\364\264\214\277edC\277\327t\"?\356*\224\277:S\257?\262/\324\276K\002\031?\\\035\350?(\273\207?me\320?\271u\257\277j\363\271\276\r~,?{\207\006\277\2422\272\277\t\3122?z\224\263\277\0357\252\276\027\230\001?\261\324\220\277\356\246O?\271\263+\2777\032\244?\212C\245\276\005\373W?\263I\366\2776\225<?\030\237\232\277\375`\361\277\257\231\215=\364\334a?*\316~\277]EH?\016\231\212?\0079\302\277\032\310\232?E\227\212?\220\014\224\277\304po?\201J_?qH\331?~4p\277^\352\223?t\324\214?\225m4\276\252\031<\275\231\357\363>67\211?\252\231\355\276\365=\304\277\362\330\250>\006\260X\277\317)\330?v\371\200?x\253\201\277\205=\344\275\014|\347\277S\216\201\277\014\341\334?\227\213\265>\014\003\366?\026 \225=B\315\366?\220M\177\277N\005\325?\010O\351\277h\256\223>sB \277%\033.\277\010\344\022=\373\t\226\277t\331\236?J^\350?m\233m\277H\220\005\277A\331C\2771\252\357>\306M\252\277\265\010\231\277P@\205\276\273\211\256\276\366a\337\277\027h\274\277\310\275\271\277(\010j?@x\350\277\267\356B>\255.\351\277TI\301\277\227\315\033\277\177\305\031?\320\214\232?E9\365\277j\245\374\277\305;/\277s\255\201=-\314\222?\0058\027?6g\242>3W\353>\363\213\357\2779b\350\276\317\'\n?\335|\361?\273\036\312\277\266y\371\277\324\207\326?%\323\226?\n\274\352?\275\035`\276\255\304[?\006j7\277l\214\270?\254|g>\022;E\277\2245e>\020\364E\277ur \277\240\036\300\276\267\374\270\276\305\250\257\277\312\352\227?\367\034\233>\340V\356?\n\004\241?\302?\211?\275\314\247?V\261\374\277\341t\346\277Cvh\277\234/V?\362\274\242\277\304\030\272?\303\312\373\277\202\252\366?\317G\234?\005\267;?)\216#?|K\352\277:@\241?N\275E>\330\210\377>\306\202\001\277\360\007\253?-(\300?\332\272\357=\303\005\330\277\027`\237\277\204\202\346\277u\303\256\277^h\256?<\000\030\277x\006\214?q\312\347?Y+\231?\010\242\222\277\336\211\237\277\364qx\277^\302\322>\254\000\313?\356f\234\277\241\022\372\277\345\262\274? O\244?kU\206\277\260\240\363?\226\263\211?\273#\307?\323\001\266?4\222<>\365\341\257\277\310\267j\277b\316y?\266 \210?\361;\025?1#\340>\002W\247\277\010\240\324\276y\235\221\277\355\220\214\277\034\226\032?\362\263\245\276\255R\217>\tg\245\277\273P\231\277\354B\206\275@\346\364\2768\037\215\277:\306\270?\247\337\212\277\317/\227?\211)\256\276\352\333\213\277\020\277\331\277~\031\263\277\036\225;?B~y\277Q\tw?\355\002\265?\361A\322?1\032\362\276\234\3715\275\\Z\024=/\254\333\277G\346\323\277T\"\273\277V\310_\277$j\274?\237\234\366?-s\216?\376\306\201?\240\375\201?\324G\314\277\331r\267\276\370\257\222>i\244\324?\324\265M?4\236\200?1\312\364\277R\251\217\277\020\\\351\277\224\023\362\277\r\264\215>$\356\311\277\314\251\261>\334M{?G\230\365\277\312o&?Q.\337?\034O\033\2773.v?\374tV\277m\257\243?I\216\n>\236d8\277r\311\363\277\241A\341\277\005\274z\277\002oO?l\232\343\277\236\r\314?\234/\271?5\221\340?I=\322\277\324+\336\276\316b\234?#\006d\275e\256m?\247\013\207\275K\003\236\276\270\317\t?\252!\344\277\334\303\324?\230i\320\277\204\010\302\277\216\227\360?\306\341\216\277G%l?c\227r\276\315\374\272?\016\020\'\276>\346\027?a\027\246\277\362\240\240?\264\370\025?\234M\035?\303B3\277\355E\265?x\025\302?\354\257\377\277|x\245\277\013\352\251>\377:\326?x\227\345\277&j\221\275@\216h\277bH\270\277/\001\255\277\t\347\322?\223&\311?\233\211\322\2778=\001\275H\3047?$D\252\277\362\177P\277\256\003\256?y\356\252\276t\\\345\277k\025\241;`\006\037\277]o\000?;\230I?\245\n\254?E\344-?/\330\230?c9\313?\344\262\375?\367\004\204\277\277aN>2\353\310>(fH<\302\237\345>\277\204\201?\264&\267?x\253\203\277<<.?\230T\361?\310\372\377\277\002s\373\277\n\277\027?\337\017U>|\317\210<C6d?\221\233\371?\213\027f\276\337\265\316\277T\275\334?\230;V\2776\376\351?;\343\312\277\343\352\377?Q\312a?\204\t\005\277\031\255\244\277 \370\311?\272\263S\277\260\215\330?Z\224\214?\005\247\332\276\302\264\303?)\257\265?o\207b?\254&v\276.\303\321\2765v\313\276>Io\277\022\324>\277P\"\031?\331E\235\277\350\035\222?^\315\226\277\374c\247\277\t\364\276\277M\325\323?r?\275?\222\335\262?#\320\312?\342\241\244\277\267\027\'?\247\200#\276\207\216W\276\024\024\261\277Zg\250\277\300\214\213>\344\233\302\277@\223\220;\021\330K?5?\263?\301\220\001\277\341\210\376?\263\032\204\277\344X\232?\312*\355\277\251\317\226?\265\320\360=\201\322\300?+\010\262\276q\301L>\231Aa\277V\362\030?\023\022{\277.\017\366\277H\365\251\276\236}F\277\233\020\313?D\266\361?I\300\014\276\027r\032?~\t\323?\312\271x\277\266\002\352\277h>t\277\265\320\033\276\243\010\351?\010\345\035>\\\t\221?J\241\371\277\177\014\367?\342~\311=?\036\325>\301\r\360\277S\200\372\275\365\340\375\277t\222\217>\224\335\004\277\327\277\300\277\206\212\265\277\240\224\231\277\275\377\320?\316\373\201\277\306\267\354\277\2442A\276\243k\364\277\031D\203\276\246\274\317\277\'\264\376\276\2569\344\277\252\330\267?=\273\357\276\022] \277\210m\302\277\252\227\367?&\227\035\277\376\273\340\276\325\260\231\276c\025\333\275n\216\352\277Y\213\347?\374A\333\277:9=?\2376\340?\333J\326\277\026\033r?s\032\217\277\254\320!\277\263\251\243\277\377\017\367?\033\267V\277\3135\037\277\026\ts\276\205\320\315>V4\315?\337G$?v=\254\277\302\316\256>q\206\334\277\327#\237?\312X\224=\371H??\201ZM\277:\004\202\277\201\nA\277Q\360\037?c\177\355\277\226\276\017\277\032x\n\277P;\354?q\323\031\277\025s\210\277\023\314e>\360\245\262\277\007\017\335=|\225H?5B\377\277\177\214\267>\223Y\200\277\265\004\362\277u\027\237?\211\332\222\277\261\263Y?p\336\263?t\223\217\275\340\007\266?T\275b?/f\343\277\310\361\357\277\357\332$?\206\224w?\353\370\352?\tB\010\277)l\006?@%\364?3\315\323\277n\3743?\364t\032\276Xi\204?(/T?,\236\'\2775\222\211?\3140t?\357\363\212?\320\261\246?{\227$\277\2730\242\277V.\360\275\317\375\366?\341@\177\277\365\216\247?NZ\206>\222\211\243\277\244g\357?u\307\354?vk\213\277\345\255\332?\355\274\370?V\357\351\276\314\3434\276\201\n\027>~\202\260\274\343\002\350?\240\331<?\376\371\322\277\225\305>\277\016IQ=\213\362\337?s\202.\277Q\267\266?\250\374\324?a\020\357\275&\376!\277\302\351\366\277\373\326\253>\212\374\267\277\3648\206>\302n\327?O;\240?\3642\313?\212\177\375\2773k\323\276;\355t?\010\263F?\335Qh\277\377\240\226\2758\225\274?H\320)\277\217\356\245\276\201\241e>nC\335?\n\362\237\277u}\216\276\353]\010\277\202R\234\277\346\225\232\275(\354\372>\037l\227\277kO\331>\335\036&>g\242%?\007\204\336\277(\351\242>Q7\341\277\347\234W\277b\'\222?\016\201\025??hI\276\004@M\277\243^U\277U\262\310\277Y\304:\277\256yY\276\325\244\224?\363\345o?O\255\353\277\007\236\">\215]\337\277y\257i?z\263X?\006\002\352\277\207}\306?QlB\277\002\374\273\277\250\344\024\277\347\032\274?\362\270\367\277\303v\226?\277:\014?\371K*\277q\0176\276\224~ ?\247Hu\277:\325\217\277\025\314,>z\230\361\276~n\356\276~\026\020\277\277\002%\276l\027\376\276\243&?\277e\374\267\277\000\300\311\277\240\356\243>\3747\357?|\306\236\277\303\242;?\222\364\377=3\000\326?\337\311\305\277V\260y\276{\236/?w\260\t\277\260\254V\277\336\030V\277\312\321L<\274C\313\277o\323\264\276rZ!\277\2703\324?G\'p?\263\377\303\277\331N\235?T\360\276?\2652\253?\213\344\211>\262\312\254\277\nRL\277=\275\367\277\376\276c\275\001\371\302\277\255\331\301?\312\331\221>\217\003\367\276s\214\003>\036\322\237?n\000\214:\177\371\375?\032\373\177?\374\353\253?\364Q\236\277k\000\255\277\241\340\321\276B[O?\323D\231\277p$^?\243Zp\277\226Tl\276l\304\203\277*\307\200>\321\320\376?=\243\'>V=T\277\025\337\321?\021\374-?\217.\244?\223g\357?l\374\263\277\216w\325\277-6\306?+\007\232?K\367i\277\025\307\330\275K\020\335?HCH\277 \273h\277QKN\277N\020\246\277\301\260\334>*T\271?\234\371}\276><C\277:X\250\275\332\304\337?\021B\250\276\030\342\356?\277\235\270?\3602\302?\2357\023\277\333\232y=7\326\342?\375\n\320?\241\rl?\327\2555?\204@d?\223\224\241?#\316\317\277m\333\004\2771\325\035?\275\2562\276&x[\277\014Z\322\276\034\330B?J\200\337?Z\361\023\277%u)\277\224\255\215?<>|?4\270h?\311\207A?\030+\265?\320\306\351?3}\275\276w\352\274\276\251<\332?\035\257\225\277\254\360\272\276\t\317\275\2778\244\254?\300\334Z\277X\222\377\277\221\321\261>-\243\270\277\016\304\355?m\315i\277\342\310\267?\024\335\177?\030{\326\2770\010\314?\321\316\214?\010\345\310\276~\240\327\277\326\\\343\277\372\030l?\203W\225\277\202\035\323?\034%\361\2769\177\330?C\371^\277@O\264?\272\370\336\277K\027\"\277\037^\346>\024\030\272?x\375\225\277\307\201\303>\344W\344\277Hk\004?;\363\326?\342/\234\277\304\203\252\277\342\244\336=\355N!?\264\335\220\277\362l\231?\257\237Q?\020\275\350\277\236_!>\316X\260\277X.\346?mQ\223\277 \372\034\277\233\334\\\276#>\265?C\024j?T\242\216>5#\275\277\203\262;\277\343\340\330?\t\010\273?\212\276`?\330z\353\277\341E\203=\271\274\311?&\305\261?\023\031\207\277.\263:?b\266\217\277\334\010\206?\247*\321\277SC8\277dnO>}<\307>\266\025\352?\300\177\366\2769\\s?\275G>\2771\022\n?\037K\215\277\260\221\324\276\007\253\313?\0362\333?Wn\264\277F0\021\276U\253\300\277d\306\346?,\304\323>\352-l?C\223\243?\334\365\233\277\315\320\013\277\030L\333\277\234\232b\276\271(\021\276\263:H\277\230\245E\277$\302\211\276\270r\344?X\225z\276\216\370\214\277P;\227?\253\307T?\372\2052?|\211\224\275\010\3679?\355\265u?\351\320\370?^^U>\332\340\022?\304\372\032?\253j\264\277;\r2\276\257\005\232?\325\234\267>\037I\337?\262\237\027\277\202J\341?BU\264\277\273\303\357\277\322\213D?dp\203\274\372ig?9\337\371\276o]\250?\300\335\222>7y\276>\334d\'?6\227\205?\022\205\302\277\220<\245?\207\3152\277.\'X\277\206\363\204?\364c\321\276R\263\335?04\237?,\306n\276\"Y\320>\260\223\214?I\366\225\277Y\001\340\2777\256Q?\026\000\210\277R\363\327\276H\005\267?G]=?\3614D?\014\360\345\276\327h!\276\'\344\365?\357U\307\277\316Z\246?\240\305\266\277s@\335?E>\376?>\363\244\277\334\330\350\275\032\342\256?\rw\223\277\022q\035\277\027\241\320\277<\261\257>pY\327\277\024\222\312>rL\242>I\204$\277\0010\200?@g\365\277\000\322Z?q\337\257?\262\345\347?\037\334\230\276\341\335?>\324kf\276\201i\345\277I\016 ?ij\350\277\247\337\353\276\312\365%=\"\256v\277\306m\340\277|\010\236?\351A\246?\013R\362?\306)\244?T\353\271>BW#?\330\246\027\277\013\371\201\277\213\243\366>Ck\350>\216\016\322?\030\324\355?\334g\261\277S\016\210>\266\223\364?\3768\247\277(Q}\277\262\007\224?\346fx>\354r\240\277WLF?\2107\272?9j\224\277\013 4>\022\232T\277\264\356D\277*\305\227\276\341Z\345;\255\323\363?\3212\367?\375\266\024\277\266\006\360\277\327JB\276\364e\024?\037<v>\022\314\321<5\202\207>2\263\336?.\nr\2777n\371\277y\021\037?\375\n\373=.\352K\277\343\365\330\277\030\214\200\277d\213\266\2771y\016?\321\374z\277,\031Y>\266\262\240\277\307\247\035\277\013\037\363\277\257\267\257?=-\246?\237\321\364?\333\337\026?\363r\215\277\357\303\312\277\202\262\317?\022\007\344\277*\230\314\277\re\207\277\243\020\267?\262R\345?\320\333\027\277\201E\214\276\241\'\340\277o[\214\277\037!\244\277z+\276\277DZs\277F\016\310?\324z\252?\252{\362?/\211\226?j\014\327>\t\200\306\277kr\211?\311:\251?\005\266\333\277\204V\215\2772\235x?w\216\253?\to\225\277\226\273\234\277X\343\233\277\2371\357?\203\241Q?\203O\334?-\\\303\277\031\207\217\275\343\353\242\276\266\332\376?\214$\300\277YZ<\277\001{\316?\204\257\344?\241\376x\276\205g\310?\214r\356>\364\236\270\277\277\3067?~_\230\277(\340\353?\001=#?yN\254\276\235\013\323\2774\312V?R\216\365\277\326! \277z,]?\3525G\277\204\324\312?\227\200\031? \300\337\276\304I\241\277\313\335\'?\"\360\331\277\317\177\320?\235ft?\36404?\251|\270\277\025\003\313\277K\215\300?\2541&?\345\202\331>F\311y?\032\361\304?h\264`\277\276\346\253\276l\231\376\277\336\373\337\27736\300\276a\242\377\277\026`\375\277^\336s?\326\203j\277C:_\277\245\275\353?\261\233\366>\232\003\215?-\317\341?\r\266.?~\304\217?\214M\356>\201Of=\302\211\351\277\320\273\326\277\305\254\353\277\335a\300\277F)\n\277\003V\271\276!\254@\277\352\373\235?9\352O?\020\205`?\360\307\245\274\007\312\370?\234c\252?A\266\305?\227\033\265\277\246/\366\277=\307\307?\311\373\320?l\205\364?\023m\276?Zug>\234\017\343?\2015;?\353\325F\277L\024t>\270k\336\277\037\033\216?H\313n\276i\327\322>L\263\226\275D5\252\277&\005J\275\037\316\263\277\327\324*?\034!\376=\363\245N?\276\2517?\275\271\361?\370\214\305\277\224b\305?l(\331?\233\356\206\277Unx\2778\3029>\225z\216?\275G\272>o\231S\277\304\017\257\276\346\223^\277\304\202\235>\337\326\260\276\257T\250\277\322\233\243\277\212\371?\277\347\345,?B{\300?\031!\302?S\016h?6\026\255<\347Y6\277\203\252f\277\314p\030\2767\335R?\032\377\347\277q\302\232?e\353\220?\3744\212?\351A\255?\336H\334\277\304\022D?\006^\216?\337\336\367?.zo\277H\036\211\277\363\344\274\277\371,\276?\"t\265?\\\373\232<L\217\342?wy\330?\\^\371?c\251\324\277j,\305\276\255<\247?\317\336\353\277\354[\255\276)\265\340?\250\257o?p\r\233?O1\366\276\370\246\033?T\332\001?\275\031(\277\001\313a\276\327CA>\t\023\277\277@\233z?a\202o\277\361\205\322\277e\204\034?\260\254~\277u\233W>\240N\220?Jw\361\277u\031\257\276\200\001\347\277\307U0>2\305\237?\320~<?\276\301\346?\272x\206\277\2279\\?\250\013\260\277\334\275\n\277\217=\345\276REy?m3x?\022\270{>\365\227\356?\343\360\353\276A\021\273?\002\017\311?\366t\243\277\271\232w?j \272\277\271\265\221?\310_\373?\2670T\277\331\274u<e7D?P<\232?\355M\362\277`<\305>\262B\356?\301\347g?\372\206\272\277\327B\321\277\017Y\324?O\244\353\277k\345\216?W$o?\350\210\333=\345\313\237?\353\213\353\2774\265\217?\037\366\346\276\r \201=\227Bj\2773\232\006\277\007\235f>n\346\272\277\2729\326?\354U\273?Q \224\277yT>?\231\3019\276rH\271\277\374F\324?\007?[\276b\220\320?<M]\277\207w\257?\327i\273>%\214;>\0209\362?!\317\362\277\2128\361?VG\204?\r\242\322\276\305a\357\277#\350\245\277\n=\262?j\324\203>f\336\237\277\022\332\r\277-s`\277\350\267O\276\036\324\360\277\277rU\277\246\301\354?\311\250?\277h\373\353==\201\275>\244\036\340?\274\372\264=\016\202\225?+\000Y\277\032\221\244>\263j\303>a\374\254\276q\216\302>\374I]\277\034B\276\277\340\352\263?Q\001I\277\344/\322\276\\\037\364\276uA\354=\004\377\007?\263\347\215>\377\0146?\265\231m\277\305\270\256=.^\355?\307\n\367?yOF?\364\374b>Q\233\227\277\361x~?\320\n}\276\037\375\243\277\\v\265\277\034\227\202\276\345k\370>\"5\201\277\246\344\251?\210x\252?V\001\255?\0345\221\277,H%?\316\2102\277J1\342\277\036]\222\277\320\305\232?o\024\355\277\326S\355?\340\177\217\277\310\234m\277\0220\212?\317\240/\277\023\344\350?\334\301s?\205\207\242\276\211J\220?\227B4?H\366\013?\274\315\361>\243\026\206\277\357\207\222\277\005\226\236>\240\036\216>c=)?>\364\332>P\343\305?1B}?\312)+\277F@\231>\244F\325\276\314\345q>\221\025\310?P/\202?\323\353\014?(\351|?4\014e?\317\r\274\275\223\361\213\277\352\304@\276\3227\237\277\350\267(?QL\206\277\373\213G?w\007\007\277$\232\324\277\3331\"\277\267\210\276\277\324v\263\276\204\256\305?\\7\342\277C\365I\277\312D\202?\304\035\335?>\260\247?O\226\246\276\030\203\300?\216\263$\277\376\205\177\277M\371\320\277\003G\017?e\224\355?)\266J\276\362\260\240?a\341\301>^Y\300\276\341\"\372\276\234l\247?I\302\244?\202\300\234\277C\234:\277\357L\226\277\r\323l?\321\034Q\277(\343\301?\366?\336\277\261\323\261\277I\354\314?p\244\351?\327\341F?\325\332\324\277\3107\025<\227%\177\277\244\261\356>)\372\316?l%\013\277\317]\272\277\214\350%\276\373K\343\274o\354\237\27718\364?_\262\273\275\244\364\333?\2056\263?\000\'\334\276\314F\343>|\224??o@\262?\323\371\271\276\374\t5\277R\300\326\275F\247\246\277\2371\201\277\300:\312\276\n\227\336\276P\207+\276\377q\324?\242\207\231\277\031\313v?]\n\352\277\310|\227?\370[8?o,\251\277\201\023\255\277\030Z\213?\"c\234?@\327\366\277\250\261\277\275\230\310\302\276\264\304\363?fm\224?\351)\032\277\345U9\277\264\201\271\277\022\344\307\277\310:\271\277L\304\316?I\274\310\277\270\237\202\276N\244\257\277\350\241s\277\276\r\241? \244\244?Hk\335\277\337&\264?\007\255\302?\303\374\374?iN\312\277\333\221\311?&-\275\276\271\033\177?|4l\277\034\236f\275M\214\275\277\216\260\350?\265\315\376?Y\370\342>\304\2323?\336\3515?\263\2619>\333|e\277v\033\311\276\332\337$?\230v\235\277\031\016\351\275\021+\234?\265\033\307\276\242\356\347?\260y\004\277<\222$\277PP\302?\3108[\277\366\301\306\277o[\205?\036\354\375?\360bp>zi\255\277$L\\\277\nO\225\277\337)\210\277\276\002Q\276\364<\200\276JDY\277C\035\267?\317\032\321\277~g\215\275\n/[\277\231\307I\277\212\037\245>U\251\226\277\027\020\271\277\206\320\261\276^i\310\276f\336\367\277r$\211\277\343y\322\276\261\355\226?\026\231\360\277\225\003\252\277\376\325\204?\326C\236\277)t\243?\223\035\000?\036\003\252\276\026\271\317?\357\023\362\277\264J\334\276\010$\274\275W\226:\277\267\347\004?\034\331\211\277(\313\206>\322$\341\277\234\263\300?G\336\005?\331u\203\277\251\350@>)6y\277j\307q?V>\367?\274\\\201\277\324\"\366>U\376\320\274)\005\203>j\367\274\2779\256\266=\025\333\366?\026\367\356\277\341\200\226\275\005Q\271>\304\000I?\017\336\341?\215\363\346\276\236s(?q\214\241\276\'\351\251\277c\227\036\276I\331\231?K\372I=z\352\213\275\026\024\361\277\210G\302?_\320\302\277\267y\207\277u2)\277\375E\235\277=\225\267\274\221?\306?\265\346\226\277\324|\002>a\365\311\277\265\242\347\277\025\373\031?\207G\311?\230\023\336\277\264\273\256\277\266\032\270>f\311\243\277@\237\217\277W\345H\276\204\261\323\277B\213\032\277&]\320\276q\226\244\277\336B\342>\232\022\252>\366\376\257?P\024\247\277\251@\226?\233\273\311>\200A\312?\352O\245?\357\277\265\277\222\341\234?\307q\343>\030l\372\277\242\316(?1\3767\277Di\277?\005\352\257?ZE\313?\270-\237\277\360\316\245?\020X\330\276d\276b\277\021\243\215\277\3233Z\276\0202\271\277t\310\314?A\331\254?\326|{>$\017\264\277{\375\306?\336\210\374>E`\237?\002\342>>\n\244\342?\215\004M?\201\370\323\276L\016\231?#\t\017=\3600\333\277\020\240\217?|\363]?T\254\214?~\344\240?\312\260\217\277\324z\376\277\264\260v?\344\223\336\277\225\260A\27724\310?F\227\263>8\222P>\343\032\202?\272T\225\277\002\250\213?\232\333f\277Dx\221\277\037\366&\277O\314\303?9\231\373\277\222\027\305\276\266Z\203\277\005$\003?\232h\222?%\215\212\276%\233\257?\203O\336\277\336W\304\277\357\007\342\277\014\326\207?\263Wa?6\330\275>\322\255\217\277qm\240\277w\335\267?\212\351\344\277!s\342\277.\211\347\277\243fc?\361\357\374>o\341\216\277\271\335\260<\r:\343\277\204\016b\2772%\214?\235\005\312\277C\301\234\276r\332x\277\261\214\370>d:\340>\026\317\234\277\202\341Z?\216\213*?\304{\334?\0368\277?\221vG?8r\327?I~\206\277\255\325x>\243\n\222\277\345\301%\277\245\313\204?\241)\340\277\265%\253\277\002;\243\276\342\027\253\277\300\372\226\277V\314f?\230M\342\276\241NM\277\013\371e?\216\026\032\277\343\377y\277\323q\330\277\203\223L?\355\360\257?S^t?{Q\372\277\306\270\230\276\226U\221>9B\345?\322\003\277?\371\222\342?\361\301\232\276\224\267\204\277\t\253\354\277\201\177\357\2756\332\373?*\270\324\277\3037\034?\317\225]\277\361J\356\276\006qz>~q\200?\234s\372\277\026\312\271?x\304\371=tI\217\277\254\235\177?p\367\322?K\351<\277\371l\300?\"A\357\277\274\366\323\276\374\327\311\277N\266\207\277g\333\t>\177q\262?\302\004$?` \321?\024?\313?\347\262\237\276e\331\264?\005:\366\277\256\367\317>\351\352\346?\013\221\"\277m\225\313\2761\345k>2*\r\277\317\003\245?l`\356\277A\304\351?\0061\377\277+\255{?\021\332\253\277LO\254?f\265\357\277\331\036\331?\021Zl?\331\334\203?\211\360C\277\245\273\277\277\366\001\345?\213v\261?*6\260?\202\035\331\277~^\201?\351\257\324?\352\032I?\302\337\316\277$\027\237\277\177T\344?\026\307\201?\017K\021\277-\027\204>\017T\240\277_C\235?\333b\232>\026;W\277\005\232\037?"
      }
    }
  }
}
node {
  name: "gen_quant_npy"
  op: "FakeQuantWithMinMaxArgs"
  input: "gen_quant_npy/inputs"
  attr {
    key: "max"
    value {
      f: 1.9997752904891968
    }
  }
  attr {
    key: "min"
    value {
      f: -1.9998407363891602
    }
  }
  attr {
    key: "narrow_range"
    value {
      b: false
    }
  }
  attr {
    key: "num_bits"
    value {
      i: 8
    }
  }
}
node {
  name: "fake_quant_inputs"
  op: "FakeQuantWithMinMaxArgs"
  input: "placeholder_0"
  attr {
    key: "max"
    value {
      f: 1.9997752904891968
    }
  }
  attr {
    key: "min"
    value {
      f: -1.9998407363891602
    }
  }
  attr {
    key: "narrow_range"
    value {
      b: false
    }
  }
  attr {
    key: "num_bits"
    value {
      i: 8
    }
  }
}
node {
  name: "fake_quant_wts"
  op: "FakeQuantWithMinMaxArgs"
  input: "const_1"
  attr {
    key: "max"
    value {
      f: 1.9936614036560059
    }
  }
  attr {
    key: "min"
    value {
      f: -1.9891220331192017
    }
  }
  attr {
    key: "narrow_range"
    value {
      b: false
    }
  }
  attr {
    key: "num_bits"
    value {
      i: 8
    }
  }
}
node {
  name: "conv"
  op: "Conv2D"
  input: "fake_quant_inputs"
  input: "fake_quant_wts"
  attr {
    key: "T"
    value {
      type: DT_FLOAT
    }
  }
  attr {
    key: "data_format"
    value {
      s: "NHWC"
    }
  }
  attr {
    key: "dilations"
    value {
      list {
        i: 1
        i: 1
        i: 1
        i: 1
      }
    }
  }
  attr {
    key: "explicit_paddings"
    value {
      list {
      }
    }
  }
  attr {
    key: "padding"
    value {
      s: "SAME"
    }
  }
  attr {
    key: "strides"
    value {
      list {
        i: 1
        i: 1
        i: 1
        i: 1
      }
    }
  }
  attr {
    key: "use_cudnn_on_gpu"
    value {
      b: true
    }
  }
}
node {
  name: "result"
  op: "FakeQuantWithMinMaxArgs"
  input: "conv"
  attr {
    key: "max"
    value {
      f: 10.0
    }
  }
  attr {
    key: "min"
    value {
      f: -10.0
    }
  }
  attr {
    key: "narrow_range"
    value {
      b: false
    }
  }
  attr {
    key: "num_bits"
    value {
      i: 8
    }
  }
}
versions {
  producer: 498
}
